000000
000000
000000
000000
000000
000000
000000
000000
000000
000000
000000
000000
000000
000000
000000
000000
000000
000000
000000
000000
000000
000000
000000
000000
000000
000000
000000
000000
000000
000000
000000
000000
000000
000000
000000
000000
000000
000000
7ffb44
000000
000000
000000
000000
000000
000000
000000
000000
000000
000000
000000
000000
000000
000000
000000
7ffb44
7ffb44
7ffb44
7ffb44
7ffb44
7ffb44
7ffb44
7ffb44
7ffb44
7ffb44
7ffb44
7ffb44
7ffb44
7ffb44
7ffb44
7ffb44
7ffb44
7ffb44
7ffb44
7ff315
0006a3
000000
000000
000000
000000
000000
000000
000000
000000
000000
000000
000000
000000
000000
000000
7ff315
7ff315
7ff315
7ff315
7ff315
7ff315
7ff315
7ff315
7ff315
7ff315
7ff315
7ff315
7ff315
7ff315
7ff315
7ff315
7ff315
7ff315
7ff315
7ff6ab
7ffd3d
0007a1
000000
000000
000000
000000
000000
000000
000000
000000
000000
000000
000000
000000
000000
7ff6ab
7ff6ab
7ff6ab
7ff6ab
7ff6ab
7ff6ab
7ff6ab
7ff6ab
7ff6ab
7ff6ab
7ff6ab
7ff6ab
7ff6ab
7ff6ab
7ff6ab
7ff6ab
7ff6ab
7ff6ab
7ff6ab
7ff4ca
7ff828
0014f1
7ff530
000000
000000
000000
000000
000000
000000
000000
000000
000000
000000
000000
000000
7ff4ca
7ff4ca
7ff4ca
7ff4ca
7ff4ca
7ff4ca
7ff4ca
7ff4ca
7ff4ca
7ff4ca
7ff4ca
7ff4ca
7ff4ca
7ff4ca
7ff4ca
7ff4ca
7ff4ca
7ff4ca
7ff4ca
7ff90f
7ff71d
00121f
7ffc91
7ffa01
000000
000000
000000
000000
000000
000000
000000
000000
000000
000000
000000
7ff90f
7ff90f
7ff90f
7ff90f
7ff90f
7ff90f
7ff90f
7ff90f
7ff90f
7ff90f
7ff90f
7ff90f
7ff90f
7ff90f
7ff90f
7ff90f
7ff90f
7ff90f
7ff90f
7ff6b6
7ff008
0013d8
00013b
7fedc6
0009ed
000000
000000
000000
000000
000000
000000
000000
000000
000000
000000
7ff6b6
7ff6b6
7ff6b6
7ff6b6
7ff6b6
7ff6b6
7ff6b6
7ff6b6
7ff6b6
7ff6b6
7ff6b6
7ff6b6
7ff6b6
7ff6b6
7ff6b6
7ff6b6
7ff6b6
7ff6b6
7ff6b6
7ffa84
7feb36
000550
0004c5
7ff75a
7ff0d3
001460
000000
000000
000000
000000
000000
000000
000000
000000
000000
7ffa84
7ffa84
7ffa84
7ffa84
7ffa84
7ffa84
7ffa84
7ffa84
7ffa84
7ffa84
7ffa84
7ffa84
7ffa84
7ffa84
7ffa84
7ffa84
7ffa84
7ffa84
7ffa84
000f05
7fed2c
0002d3
7ffd46
7ff92d
7ff5c3
00076e
000a82
000000
000000
000000
000000
000000
000000
000000
000000
000f05
000f05
000f05
000f05
000f05
000f05
000f05
000f05
000f05
000f05
000f05
000f05
000f05
000f05
000f05
000f05
000f05
000f05
000f05
0011e1
7ff0de
00032d
7ffcd3
7ff7d3
7ff617
000852
00082c
0001e5
000000
000000
000000
000000
000000
000000
000000
0011e1
0011e1
0011e1
0011e1
0011e1
0011e1
0011e1
0011e1
0011e1
0011e1
0011e1
0011e1
0011e1
0011e1
0011e1
0011e1
0011e1
0011e1
0011e1
0003bf
000dda
0028a1
000068
7ff349
7fe866
000ba8
001131
7fea40
001331
000000
000000
000000
000000
000000
000000
0003bf
0003bf
0003bf
0003bf
0003bf
0003bf
0003bf
0003bf
0003bf
0003bf
0003bf
0003bf
0003bf
0003bf
0003bf
0003bf
0003bf
0003bf
0003bf
7ff712
00137d
001d10
7ff176
7ff1da
7fea35
00111d
000fdc
7fe6a6
001c9f
7ff857
000000
000000
000000
000000
000000
7ff712
7ff712
7ff712
7ff712
7ff712
7ff712
7ff712
7ff712
7ff712
7ff712
7ff712
7ff712
7ff712
7ff712
7ff712
7ff712
7ff712
7ff712
7ff712
7fe1ac
7fb9f6
0044e2
7f9fc4
7f884b
7fe01a
001de7
00366f
7fdd3f
000331
003af9
7fc9e7
000000
000000
000000
000000
7fe1ac
7fe1ac
7fe1ac
7fe1ac
7fe1ac
7fe1ac
7fe1ac
7fe1ac
7fe1ac
7fe1ac
7fe1ac
7fe1ac
7fe1ac
7fe1ac
7fe1ac
7fe1ac
7fe1ac
7fe1ac
7fe1ac
7fe340
7fa7ca
7ff8d9
7fc196
7f42e9
7f8674
001552
00414b
7ffe02
7ffb34
002560
00027e
7fd20e
000000
000000
000000
7fe340
7fe340
7fe340
7fe340
7fe340
7fe340
7fe340
7fe340
7fe340
7fe340
7fe340
7fe340
7fe340
7fe340
7fe340
7fe340
7fe340
7fe340
7fe340
7ff12f
7fa68e
0006fd
7ffcc4
7f2895
7fbc74
005b19
0047f8
7ff58d
7fe1b3
002b97
00134d
7fa601
0023c2
000000
000000
7ff12f
7ff12f
7ff12f
7ff12f
7ff12f
7ff12f
7ff12f
7ff12f
7ff12f
7ff12f
7ff12f
7ff12f
7ff12f
7ff12f
7ff12f
7ff12f
7ff12f
7ff12f
7ff12f
7fe177
7fdd53
000226
003459
001127
7f5500
012f53
015a30
000fcc
7fc078
7fc75f
002bb9
7fe810
7f76a6
008c88
000000
7fe177
7fe177
7fe177
7fe177
7fe177
7fe177
7fe177
7fe177
7fe177
7fe177
7fe177
7fe177
7fe177
7fe177
7fe177
7fe177
7fe177
7fe177
7fe177
7fd486
7fc7f2
004ca7
002dc4
005cc3
00915d
00a299
027ae0
0184d0
7fe42c
7f9a2c
7fa366
000949
7fd082
7fa10e
00bf2a
7fd486
7fd486
7fd486
7fd486
7fd486
7fd486
7fd486
7fd486
7fd486
7fd486
7fd486
7fd486
7fd486
7fd486
7fd486
7fd486
7fd486
7fd486
7fd486
00418d
7fbedb
003da4
006213
005824
00c673
0180ba
021811
024f82
00ea13
7fb33d
7f83a9
7fa991
7fe7d5
7fe026
0019d4
00418d
00418d
00418d
00418d
00418d
00418d
00418d
00418d
00418d
00418d
00418d
00418d
00418d
00418d
00418d
00418d
00418d
00418d
00418d
0060c0
7fdfd7
003ae4
005d88
0067f7
00c50d
0190c9
025b45
02319c
012766
00027a
7f8b3e
7f9ff6
7fcadf
7fe734
002ceb
0060c0
0060c0
0060c0
0060c0
0060c0
0060c0
0060c0
0060c0
0060c0
0060c0
0060c0
0060c0
0060c0
0060c0
0060c0
0060c0
0060c0
0060c0
0060c0
007f02
7ffdec
005ab3
005ae1
006395
00d450
018f70
026ac2
02726a
010a92
003d9c
7fd7a7
7fa746
7fc19c
7fcb47
0033b9
007f02
007f02
007f02
007f02
007f02
007f02
007f02
007f02
007f02
007f02
007f02
007f02
007f02
007f02
007f02
007f02
007f02
007f02
007f02
00941c
002a78
0086fd
0089b4
005fad
00cddd
01a5e7
0268c6
028937
0169f9
00132c
002eb5
0017c2
7fcc60
7fbda5
000a9c
00941c
00941c
00941c
00941c
00941c
00941c
00941c
00941c
00941c
00941c
00941c
00941c
00941c
00941c
00941c
00941c
00941c
00941c
00941c
007914
00397f
00a6b5
00a93d
008105
00cb15
01a14f
0278c5
0287cd
017a35
00571b
00107c
0055c0
001c79
7fc54f
0000e7
007914
007914
007914
007914
007914
007914
007914
007914
007914
007914
007914
007914
007914
007914
007914
007914
007914
007914
007914
007158
004683
009f78
0099f6
0071d5
00bb06
01a2a5
027afa
028018
017ae3
004f49
7fefc5
00644d
7ffe9e
7f9ebc
7ffd35
007158
007158
007158
007158
007158
007158
007158
007158
007158
007158
007158
007158
007158
007158
007158
007158
007158
007158
007158
004b89
0035e1
00bb79
008a63
0050f7
009a59
018019
027ddb
0284d9
016a4f
0050bf
7fdef2
001dea
001dec
7f5e82
7faa38
004b89
004b89
004b89
004b89
004b89
004b89
004b89
004b89
004b89
004b89
004b89
004b89
004b89
004b89
004b89
004b89
004b89
004b89
004b89
0052ce
004e1f
00c623
00786d
005af3
00af6c
01950d
029402
028300
016742
005b60
7fde01
0028b3
004b0f
7f4a6d
7fd368
0052ce
0052ce
0052ce
0052ce
0052ce
0052ce
0052ce
0052ce
0052ce
0052ce
0052ce
0052ce
0052ce
0052ce
0052ce
0052ce
0052ce
0052ce
0052ce
0080d7
0063df
010eaa
009855
002538
00cd4b
01d41a
02d2b2
02c547
0161bb
005240
7ffdce
0025e4
006b55
7fd176
7f9757
0080d7
0080d7
0080d7
0080d7
0080d7
0080d7
0080d7
0080d7
0080d7
0080d7
0080d7
0080d7
0080d7
0080d7
0080d7
0080d7
0080d7
0080d7
0080d7
0099ec
008794
011f89
00d097
003df8
00a39e
01eb45
03039a
02f5e6
019523
004df7
7ff6ba
003e8e
006927
7fea7e
000014
0099ec
0099ec
0099ec
0099ec
0099ec
0099ec
0099ec
0099ec
0099ec
0099ec
0099ec
0099ec
0099ec
0099ec
0099ec
0099ec
0099ec
0099ec
0099ec
00970e
008e71
01294e
00d534
004d5c
00aa63
01dfdd
0309f1
030347
01a271
005c08
7ff58d
003c9e
006fe6
7fe9e5
0006ed
00970e
00970e
00970e
00970e
00970e
00970e
00970e
00970e
00970e
00970e
00970e
00970e
00970e
00970e
00970e
00970e
00970e
00970e
00970e
009231
009376
011d46
00c414
004544
008f68
01d3fe
031ded
02f82a
018afc
0044b6
7fdce5
003eac
00734a
7fde10
0007f8
009231
009231
009231
009231
009231
009231
009231
009231
009231
009231
009231
009231
009231
009231
009231
009231
009231
009231
009231
009b85
008ffa
0120de
00bb77
003901
00899d
01c0ad
03156d
030678
018307
0033eb
7fcc33
002d05
0074c2
7fe07e
7fff80
009b85
009b85
009b85
009b85
009b85
009b85
009b85
009b85
009b85
009b85
009b85
009b85
009b85
009b85
009b85
009b85
009b85
009b85
009b85
00a3fe
008876
0123ab
00b891
003ff0
00937c
01c557
0324fa
030d4f
017781
003a52
7fd9b8
003a76
0082f8
7fdf4e
7ffd8b
00a3fe
00a3fe
00a3fe
00a3fe
00a3fe
00a3fe
00a3fe
00a3fe
00a3fe
00a3fe
00a3fe
00a3fe
00a3fe
00a3fe
00a3fe
00a3fe
00a3fe
00a3fe
00a3fe
008099
00a3de
010b5f
00c1a1
003692
00a9e9
01e543
03340f
033f9b
018da1
00150f
7fee6f
00662f
00ae71
000d44
7ff9b6
008099
008099
008099
008099
008099
008099
008099
008099
008099
008099
008099
008099
008099
008099
008099
008099
008099
008099
008099
006185
008285
012531
00aabd
003f1c
00a116
01fa63
035222
034dd1
01bd04
0029e8
7fcb54
0079b3
00d7a3
003639
002503
006185
006185
006185
006185
006185
006185
006185
006185
006185
006185
006185
006185
006185
006185
006185
006185
006185
006185
006185
00573a
0074ee
01169c
00b607
003519
00a4d2
01f687
035b5f
035af7
01c33a
003ea0
7fd471
006a59
00e02b
00483c
0036eb
00573a
00573a
00573a
00573a
00573a
00573a
00573a
00573a
00573a
00573a
00573a
00573a
00573a
00573a
00573a
00573a
00573a
00573a
00573a
004881
0070e1
011143
00b04a
00398a
00a0e2
01f7ff
0359da
035e99
01c866
004111
7fdc97
006dee
00da21
004b97
003e00
004881
004881
004881
004881
004881
004881
004881
004881
004881
004881
004881
004881
004881
004881
004881
004881
004881
004881
004881
004400
007a17
0113cb
00b3a2
003d20
009e1a
01fa75
0358ee
035f8c
01c61f
003dd4
7fdb0f
0068d4
00d7e2
004f5e
003be6
004400
004400
004400
004400
004400
004400
004400
004400
004400
004400
004400
004400
004400
004400
004400
004400
004400
004400
004400
00448a
007c7d
010ee1
00b248
003b57
009c30
01fbf0
03579d
036009
01c59d
003f0a
7fdcc8
0069a4
00da9a
005090
0039e2
00448a
00448a
00448a
00448a
00448a
00448a
00448a
00448a
00448a
00448a
00448a
00448a
00448a
00448a
00448a
00448a
00448a
00448a
00448a
003ed0
007ef3
0119c8
009bf5
003533
009415
01f33d
035e59
035a10
01c7d7
003cbc
7fe24a
00717c
00de4e
005cec
003f52
003ed0
003ed0
003ed0
003ed0
003ed0
003ed0
003ed0
003ed0
003ed0
003ed0
003ed0
003ed0
003ed0
003ed0
003ed0
003ed0
003ed0
003ed0
003ed0
003f7d
007e93
0119f1
009caa
0033be
0093ae
01f2b5
035dc7
035a80
01c773
003ce1
7fe223
0071d7
00ded0
005d29
004020
003f7d
003f7d
003f7d
003f7d
003f7d
003f7d
003f7d
003f7d
003f7d
003f7d
003f7d
003f7d
003f7d
003f7d
003f7d
003f7d
003f7d
003f7d
003f7d
005432
006dfe
012313
0098bb
002256
00b74e
01fc80
036ab6
036861
01bcb3
004667
7fde94
007582
00d604
0050a4
003a35
005432
005432
005432
005432
005432
005432
005432
005432
005432
005432
005432
005432
005432
005432
005432
005432
005432
005432
005432
005792
00a67c
00f5d8
00b1a6
00179b
0087d3
025daf
03856e
038ba9
01e28f
002914
7ff891
006bcf
00e008
0038a6
00180e
005792
005792
005792
005792
005792
005792
005792
005792
005792
005792
005792
005792
005792
005792
005792
005792
005792
005792
005792
005f66
00a9cd
012d5a
008535
003017
007d48
022f09
03e4eb
03a5ea
02053a
004e47
7fdbc1
008558
00d680
00427d
00007b
005f66
005f66
005f66
005f66
005f66
005f66
005f66
005f66
005f66
005f66
005f66
005f66
005f66
005f66
005f66
005f66
005f66
005f66
005f66
005beb
00ac6e
012e77
0097dd
002126
008583
022b7d
03d53c
03c603
020e0d
0059ee
7fe842
007ba8
00df15
003f48
0003c9
005beb
005beb
005beb
005beb
005beb
005beb
005beb
005beb
005beb
005beb
005beb
005beb
005beb
005beb
005beb
005beb
005beb
005beb
005beb
005fd8
00b070
012b6e
009694
000ba6
0096b9
022201
03d951
03d814
01e911
004fc2
7fdad4
006d3f
00ea3d
003564
000779
005fd8
005fd8
005fd8
005fd8
005fd8
005fd8
005fd8
005fd8
005fd8
005fd8
005fd8
005fd8
005fd8
005fd8
005fd8
005fd8
005fd8
005fd8
005fd8
004cf9
00b742
013263
00914f
00096a
007162
023fe5
03c8d8
03df2b
020871
000f87
7fc92a
0055ed
00d137
0048c4
7ff64c
004cf9
004cf9
004cf9
004cf9
004cf9
004cf9
004cf9
004cf9
004cf9
004cf9
004cf9
004cf9
004cf9
004cf9
004cf9
004cf9
004cf9
004cf9
004cf9
004cb9
00b022
0134f6
0093ef
00076c
00708a
0231cc
03d421
03d8f3
020b1e
001b5f
7fb0e9
004f42
00c869
003f51
7ffd9c
004cb9
004cb9
004cb9
004cb9
004cb9
004cb9
004cb9
004cb9
004cb9
004cb9
004cb9
004cb9
004cb9
004cb9
004cb9
004cb9
004cb9
004cb9
004cb9
004def
00b05a
013b53
0091a1
000512
007250
02328c
03e0b9
03cedd
0210ac
0018fa
7fa653
0064ed
00ce5e
00472e
00060d
004def
004def
004def
004def
004def
004def
004def
004def
004def
004def
004def
004def
004def
004def
004def
004def
004def
004def
004def
004501
00b2b2
013bc0
009dee
00009f
006dc6
0235fb
03e22d
03e734
01fd2e
0023b6
7fa1b3
005077
00f83e
0052b1
001541
004501
004501
004501
004501
004501
004501
004501
004501
004501
004501
004501
004501
004501
004501
004501
004501
004501
004501
004501
003fca
00afb3
013c89
009e12
0004bf
006c48
023475
03e353
03e7b0
020557
001d2c
7fa54c
004eea
00f161
0060bc
00191d
003fca
003fca
003fca
003fca
003fca
003fca
003fca
003fca
003fca
003fca
003fca
003fca
003fca
003fca
003fca
003fca
003fca
003fca
003fca
0044d9
00b4af
013f65
009d51
00049b
006856
0235e2
03e4c7
03e696
0204df
00155d
7fab8b
004b78
00f2dc
00674b
000baf
0044d9
0044d9
0044d9
0044d9
0044d9
0044d9
0044d9
0044d9
0044d9
0044d9
0044d9
0044d9
0044d9
0044d9
0044d9
0044d9
0044d9
0044d9
0044d9
0041b1
00b8bb
014362
009f9b
000400
006839
0232b9
03e5eb
03e7c0
0203fd
0014fd
7fa54b
005078
00f01a
00687a
0010ef
0041b1
0041b1
0041b1
0041b1
0041b1
0041b1
0041b1
0041b1
0041b1
0041b1
0041b1
0041b1
0041b1
0041b1
0041b1
0041b1
0041b1
0041b1
0041b1
00417b
00bb12
01405f
009ca3
00024c
0068ab
0232cd
03e843
03e6e6
02031f
0015a4
7fa592
00551c
00ec62
006a86
00100d
00417b
00417b
00417b
00417b
00417b
00417b
00417b
00417b
00417b
00417b
00417b
00417b
00417b
00417b
00417b
00417b
00417b
00417b
00417b
004f07
00ba35
014a02
009042
7ff619
0061aa
0234a4
03e899
03f08c
01ffa1
001214
7fa843
005640
00ff7b
005b3b
001879
004f07
004f07
004f07
004f07
004f07
004f07
004f07
004f07
004f07
004f07
004f07
004f07
004f07
004f07
004f07
004f07
004f07
004f07
004f07
00560b
00c1db
014985
0095b3
7fef1b
005ac6
0230af
03e9a3
03f0bc
020514
00101b
7fa640
0057c5
010020
006603
000fd6
00560b
00560b
00560b
00560b
00560b
00560b
00560b
00560b
00560b
00560b
00560b
00560b
00560b
00560b
00560b
00560b
00560b
00560b
00560b
0055f8
00b659
013cf9
00967f
7fe62e
00663b
023bfa
03f01f
03ef07
0204c4
00072b
7fa97b
005b10
00fda1
0064f4
7ffe26
0055f8
0055f8
0055f8
0055f8
0055f8
0055f8
0055f8
0055f8
0055f8
0055f8
0055f8
0055f8
0055f8
0055f8
0055f8
0055f8
0055f8
0055f8
0055f8
006e96
00b63c
012b15
0082fd
7fe76b
00585a
024dcb
0401af
03f91c
02021d
0006af
7f9b95
006016
0102c1
006113
7ffc81
006e96
006e96
006e96
006e96
006e96
006e96
006e96
006e96
006e96
006e96
006e96
006e96
006e96
006e96
006e96
006e96
006e96
006e96
006e96
005f32
00d4df
012af1
006cb9
7fcf24
0059e5
023c86
0417dc
040ef7
020ea9
000362
7f9afa
004eca
010901
006774
7ff7ad
005f32
005f32
005f32
005f32
005f32
005f32
005f32
005f32
005f32
005f32
005f32
005f32
005f32
005f32
005f32
005f32
005f32
005f32
005f32
0062b1
00cd9d
013962
006ca8
7fc4a5
004e73
023d40
040fb8
04196b
0218f6
00094c
7f996c
004e81
0100da
006a66
7ffaae
0062b1
0062b1
0062b1
0062b1
0062b1
0062b1
0062b1
0062b1
0062b1
0062b1
0062b1
0062b1
0062b1
0062b1
0062b1
0062b1
0062b1
0062b1
0062b1
006413
00cb55
013e1c
00633d
7fc4af
00554a
0244b5
040f3e
041eb9
021225
000294
7f9590
004f84
010109
006fb6
7ff8c2
006413
006413
006413
006413
006413
006413
006413
006413
006413
006413
006413
006413
006413
006413
006413
006413
006413
006413
006413
004cc1
00d00a
01365c
00734d
7fa4b3
00556f
025bf2
042895
041d1c
02242b
7feb6d
7f7ebf
00426a
01047a
007057
000acf
004cc1
004cc1
004cc1
004cc1
004cc1
004cc1
004cc1
004cc1
004cc1
004cc1
004cc1
004cc1
004cc1
004cc1
004cc1
004cc1
004cc1
004cc1
004cc1
005fc9
00bc83
013a4d
006ccf
7fb226
003aa6
025c11
043c0a
043254
0222d1
7ffa85
7f6b5c
002f4e
00f981
007338
000b55
005fc9
005fc9
005fc9
005fc9
005fc9
005fc9
005fc9
005fc9
005fc9
005fc9
005fc9
005fc9
005fc9
005fc9
005fc9
005fc9
005fc9
005fc9
005fc9
005fb2
00bf7f
01373d
006d6d
7fb121
003cc1
0257dd
043c0e
043561
022624
7ffa4e
7f6db9
002c43
00f682
00717f
000bc8
005fb2
005fb2
005fb2
005fb2
005fb2
005fb2
005fb2
005fb2
005fb2
005fb2
005fb2
005fb2
005fb2
005fb2
005fb2
005fb2
005fb2
005fb2
005fb2
006250
00bfa6
013212
0072b9
7fb00f
003e83
025436
044353
043558
0220db
7ff48b
7f6e16
002829
00fbc5
0076ae
000ec2
006250
006250
006250
006250
006250
006250
006250
006250
006250
006250
006250
006250
006250
006250
006250
006250
006250
006250
006250
006394
00c048
01321b
007177
7fb158
003e40
0254a3
04426f
04371c
0220d8
7ff342
7f6caf
00283f
00fac6
0077f5
001004
006394
006394
006394
006394
006394
006394
006394
006394
006394
006394
006394
006394
006394
006394
006394
006394
006394
006394
006394
005c3c
00bb0c
012f7a
00714f
7fb685
0038f0
0255b5
0440ab
043ac4
02198e
7ff34a
7f71fa
002e04
00fa67
007c10
000abe
005c3c
005c3c
005c3c
005c3c
005c3c
005c3c
005c3c
005c3c
005c3c
005c3c
005c3c
005c3c
005c3c
005c3c
005c3c
005c3c
005c3c
005c3c
005c3c
005c18
00b88b
012db1
007069
7fb677
003ab3
0253e5
044108
043a2a
021acd
7ff0ce
7f71fc
002fd1
00fc5e
007bef
000c24
005c18
005c18
005c18
005c18
005c18
005c18
005c18
005c18
005c18
005c18
005c18
005c18
005c18
005c18
005c18
005c18
005c18
005c18
005c18
00547b
00b8fb
013591
007606
7fb948
003add
024e56
0446bb
043903
021cb1
7fece0
7f79cd
002fc7
00f6af
0075bd
000c88
00547b
00547b
00547b
00547b
00547b
00547b
00547b
00547b
00547b
00547b
00547b
00547b
00547b
00547b
00547b
00547b
00547b
00547b
00547b
005242
00b483
0135d2
007aa5
7fbc93
003c84
024e6e
044378
043c5b
021c04
7fedfc
7f777e
00345d
00f6a9
007267
0008e5
005242
005242
005242
005242
005242
005242
005242
005242
005242
005242
005242
005242
005242
005242
005242
005242
005242
005242
005242
0056d6
00b7b6
013c41
007a46
7fb5e9
0037c4
024c0b
044354
04410d
021731
7feef5
7f75e3
0037af
00f00c
00726e
000db2
0056d6
0056d6
0056d6
0056d6
0056d6
0056d6
0056d6
0056d6
0056d6
0056d6
0056d6
0056d6
0056d6
0056d6
0056d6
0056d6
0056d6
0056d6
0056d6
00467a
00bf19
01416b
0084a7
7fb550
002d05
024462
043f7b
0440d3
021ec5
7fe72e
7f7774
003519
00f567
0067c3
000dbe
00467a
00467a
00467a
00467a
00467a
00467a
00467a
00467a
00467a
00467a
00467a
00467a
00467a
00467a
00467a
00467a
00467a
00467a
00467a
003eae
00dcd9
0133fa
007b41
7fa26e
002e1b
0257ed
044d69
0447d1
021f2e
7fd964
7f8598
00323d
00fa1a
005e04
002124
003eae
003eae
003eae
003eae
003eae
003eae
003eae
003eae
003eae
003eae
003eae
003eae
003eae
003eae
003eae
003eae
003eae
003eae
003eae
00525a
00cca7
0171cc
005f54
7f8ee7
0006de
025a2e
047606
0464c3
022db6
7fda3e
7f68f2
004fa0
00f42b
0067c8
000ce4
00525a
00525a
00525a
00525a
00525a
00525a
00525a
00525a
00525a
00525a
00525a
00525a
00525a
00525a
00525a
00525a
00525a
00525a
00525a
005024
00d53c
016abb
007a4d
7f82b7
7ffe59
02490f
047702
04767b
023a57
7fe095
7f6951
004320
0100fd
006531
001126
005024
005024
005024
005024
005024
005024
005024
005024
005024
005024
005024
005024
005024
005024
005024
005024
005024
005024
005024
004343
00d806
015fe3
008339
7f60a6
000dbc
0253d1
048ca0
04753c
0223f5
7fd0a1
7f614e
0042a7
0110c6
0054ff
00146b
004343
004343
004343
004343
004343
004343
004343
004343
004343
004343
004343
004343
004343
004343
004343
004343
004343
004343
004343
00550a
00c35e
01645c
0071d5
7f6ef6
7fd719
026c7e
049de1
0497e9
0221f6
7facbb
7f47b8
0035cf
011004
006e50
7ffa71
00550a
00550a
00550a
00550a
00550a
00550a
00550a
00550a
00550a
00550a
00550a
00550a
00550a
00550a
00550a
00550a
00550a
00550a
00550a
005de6
00c833
015ebe
00730c
7f6a3c
7fdafc
025da4
04a496
049c99
022b62
7fac30
7f3df6
002eda
010c86
006e1b
000152
005de6
005de6
005de6
005de6
005de6
005de6
005de6
005de6
005de6
005de6
005de6
005de6
005de6
005de6
005de6
005de6
005de6
005de6
005de6
004e68
00b8ed
015669
007cb8
7f6823
7fe321
0256ef
04be2d
049109
02234c
7f9bf1
7f3ee5
003faa
011881
00741f
0001ac
004e68
004e68
004e68
004e68
004e68
004e68
004e68
004e68
004e68
004e68
004e68
004e68
004e68
004e68
004e68
004e68
004e68
004e68
004e68
0053b3
00a980
014734
00746c
7f71c5
7fe10a
025f0b
04b77f
04aa85
0217c8
7f93e4
7f2eb8
004098
01293f
00800e
0007a9
0053b3
0053b3
0053b3
0053b3
0053b3
0053b3
0053b3
0053b3
0053b3
0053b3
0053b3
0053b3
0053b3
0053b3
0053b3
0053b3
0053b3
0053b3
0053b3
0052ea
00aba8
0140e9
006e38
7f6e63
7fe4f7
025e31
04bacd
04a7cc
02222c
7f8f32
7f2b6f
0039ff
0129a0
0086e2
000c86
0052ea
0052ea
0052ea
0052ea
0052ea
0052ea
0052ea
0052ea
0052ea
0052ea
0052ea
0052ea
0052ea
0052ea
0052ea
0052ea
0052ea
0052ea
0052ea
005200
00aad4
01432e
006798
7f67db
7fe167
026254
04b9e7
04ab47
021f4e
7f9a23
7f267d
00368a
0122ad
008748
0013b6
005200
005200
005200
005200
005200
005200
005200
005200
005200
005200
005200
005200
005200
005200
005200
005200
005200
005200
005200
0058ab
00a9e7
014258
0069e3
7f612b
7fdacf
025ebb
04be14
04aa5f
0222d2
7f973d
7f3189
00318c
011f2f
008044
00141d
0058ab
0058ab
0058ab
0058ab
0058ab
0058ab
0058ab
0058ab
0058ab
0058ab
0058ab
0058ab
0058ab
0058ab
0058ab
0058ab
0058ab
0058ab
0058ab
0058c7
00aa71
014244
0069d1
7f615a
7fda44
025e32
04bdc9
04aab5
0222bf
7f9785
7f314c
003271
011ec7
007ffb
00138b
0058c7
0058c7
0058c7
0058c7
0058c7
0058c7
0058c7
0058c7
0058c7
0058c7
0058c7
0058c7
0058c7
0058c7
0058c7
0058c7
0058c7
0058c7
0058c7
0056b4
00a763
013366
006bdf
7f6335
7fd527
026d18
04cc79
04b2b8
021970
7f9989
7f2976
0038e4
010628
008b19
001b51
0056b4
0056b4
0056b4
0056b4
0056b4
0056b4
0056b4
0056b4
0056b4
0056b4
0056b4
0056b4
0056b4
0056b4
0056b4
0056b4
0056b4
0056b4
0056b4
00361e
00a354
012d6a
004ebe
7f673b
7fd8cb
026313
04e9aa
04cf7f
022922
7f874c
7f2d69
002989
0112cb
005adc
00311a
00361e
00361e
00361e
00361e
00361e
00361e
00361e
00361e
00361e
00361e
00361e
00361e
00361e
00361e
00361e
00361e
00361e
00361e
00361e
0041e9
008c0c
012a83
004a77
7f526c
7fdbab
0265ad
04e281
04e45a
023db1
7f9283
7f2061
002c5b
0107d3
0063e3
000ea3
0041e9
0041e9
0041e9
0041e9
0041e9
0041e9
0041e9
0041e9
0041e9
0041e9
0041e9
0041e9
0041e9
0041e9
0041e9
0041e9
0041e9
0041e9
0041e9
0040a3
008d84
01279c
004a1a
7f51e3
7fd913
026608
04e2d3
04e375
02404a
7f9512
7f21c6
002abb
01082c
006285
000fc2
0040a3
0040a3
0040a3
0040a3
0040a3
0040a3
0040a3
0040a3
0040a3
0040a3
0040a3
0040a3
0040a3
0040a3
0040a3
0040a3
0040a3
0040a3
0040a3
003ffe
008cfa
01283a
0048e1
7f51bc
7fd8d9
0264f0
04e2f9
04e397
023fe9
7f962a
7f22da
002b51
01077c
0062aa
000f2e
003ffe
003ffe
003ffe
003ffe
003ffe
003ffe
003ffe
003ffe
003ffe
003ffe
003ffe
003ffe
003ffe
003ffe
003ffe
003ffe
003ffe
003ffe
003ffe
003f49
008f63
012a3d
00468e
7f5652
7fd96b
0265c7
04e712
04e305
023f65
7f9792
7f1ebe
002743
010546
00653b
000e9f
003f49
003f49
003f49
003f49
003f49
003f49
003f49
003f49
003f49
003f49
003f49
003f49
003f49
003f49
003f49
003f49
003f49
003f49
003f49
00403b
008e50
012de7
00499c
7f52c9
7fe063
0266a5
04e859
04e940
023e88
7f96ca
7f20e2
002104
00ff1d
0061df
001285
00403b
00403b
00403b
00403b
00403b
00403b
00403b
00403b
00403b
00403b
00403b
00403b
00403b
00403b
00403b
00403b
00403b
00403b
00403b
00339c
0090a5
012b43
0052a5
7f5a52
7fd7ad
0277d3
04ea7c
04ec67
024de3
7f94aa
7f1ef6
00264c
00efb8
0052b1
000a3d
00339c
00339c
00339c
00339c
00339c
00339c
00339c
00339c
00339c
00339c
00339c
00339c
00339c
00339c
00339c
00339c
00339c
00339c
00339c
002691
008367
012db5
004fe0
7f63ce
7fdf96
026eaf
04fc84
04eea5
025132
7fa4c8
7f1cbb
002447
00f543
004289
7ffa4f
002691
002691
002691
002691
002691
002691
002691
002691
002691
002691
002691
002691
002691
002691
002691
002691
002691
002691
002691
00270f
007df9
012831
0050e4
7f62a6
7fe388
0271fa
04f8b6
04f626
025221
7fa628
7f2370
002359
00f46c
0044d7
7ff395
00270f
00270f
00270f
00270f
00270f
00270f
00270f
00270f
00270f
00270f
00270f
00270f
00270f
00270f
00270f
00270f
00270f
00270f
00270f
002795
007e0c
01275a
00500a
7f62ce
7fe35a
027295
04f937
04f58f
025349
7fa64c
7f23a6
002461
00f447
0044b5
7ff3f0
002795
002795
002795
002795
002795
002795
002795
002795
002795
002795
002795
002795
002795
002795
002795
002795
002795
002795
002795
002ae5
007ef8
01277c
004e91
7f614f
7fe3a0
027245
04fa48
04f673
025241
7fa854
7f23e6
0024c0
00f618
004474
7ff3b5
002ae5
002ae5
002ae5
002ae5
002ae5
002ae5
002ae5
002ae5
002ae5
002ae5
002ae5
002ae5
002ae5
002ae5
002ae5
002ae5
002ae5
002ae5
002ae5
00273b
008d29
012b73
004f24
7f5b01
7fdd39
027373
04f8f1
04fb08
025613
7fa3e9
7f2c9d
0025d5
00f7b1
004c3e
7ff2a1
00273b
00273b
00273b
00273b
00273b
00273b
00273b
00273b
00273b
00273b
00273b
00273b
00273b
00273b
00273b
00273b
00273b
00273b
00273b
002760
008ca4
012d74
004fb3
7f5b15
7fdc55
02728b
04f91b
04fad7
0256b8
7fa473
7f2bfd
002710
00f7d8
004c77
7ff3ba
002760
002760
002760
002760
002760
002760
002760
002760
002760
002760
002760
002760
002760
002760
002760
002760
002760
002760
002760
00281c
008af7
01336a
003896
7f54a0
7fdb65
027cce
050387
04f8e9
0258e5
7f9cfb
7f25c2
002e41
00e9a6
004ab2
7ff11e
00281c
00281c
00281c
00281c
00281c
00281c
00281c
00281c
00281c
00281c
00281c
00281c
00281c
00281c
00281c
00281c
00281c
00281c
00281c
0041a0
008c0d
0130f1
004164
7f327e
7fd1dc
027b6b
0512ae
05084d
02560c
7fa032
7f1abb
00250f
00f445
0035bc
7fee81
0041a0
0041a0
0041a0
0041a0
0041a0
0041a0
0041a0
0041a0
0041a0
0041a0
0041a0
0041a0
0041a0
0041a0
0041a0
0041a0
0041a0
0041a0
0041a0
004453
0097ef
013172
00403d
7f3697
7fc1f6
0276fa
051208
050f5c
025d37
7f9ede
7f1c3a
001fec
00effc
003aae
7fe4be
004453
004453
004453
004453
004453
004453
004453
004453
004453
004453
004453
004453
004453
004453
004453
004453
004453
004453
004453
002f7f
0092d6
011b03
003f47
7f38c3
7fba38
0294fa
051a69
051093
024fe4
7f9156
7f1eba
001d17
00f9ac
0042c3
7fdb68
002f7f
002f7f
002f7f
002f7f
002f7f
002f7f
002f7f
002f7f
002f7f
002f7f
002f7f
002f7f
002f7f
002f7f
002f7f
002f7f
002f7f
002f7f
002f7f
003b61
007973
0114cd
0023ef
7f3798
7fbcde
028b8a
053efa
051ac9
02515f
7f8118
7f0e3c
002023
00f639
004e92
7fe542
003b61
003b61
003b61
003b61
003b61
003b61
003b61
003b61
003b61
003b61
003b61
003b61
003b61
003b61
003b61
003b61
003b61
003b61
003b61
0030eb
008358
00ffa9
001ec3
7f20d3
7fbbe5
028dbe
05371f
05393c
0259e0
7f8254
7f00b6
001267
00f8c2
004bb3
7fef17
0030eb
0030eb
0030eb
0030eb
0030eb
0030eb
0030eb
0030eb
0030eb
0030eb
0030eb
0030eb
0030eb
0030eb
0030eb
0030eb
0030eb
0030eb
0030eb
003147
008026
0102ae
00184d
7f1f3e
7fb4f0
028d71
0537cb
0536d5
02632d
7f84ed
7f0116
000e45
00f490
004c79
7fee36
003147
003147
003147
003147
003147
003147
003147
003147
003147
003147
003147
003147
003147
003147
003147
003147
003147
003147
003147
003245
007ff7
01044c
0016c4
7f2284
7fb5bd
0290f7
0537f1
05367d
026464
7f8035
7effc4
000e14
00f6a8
004e99
7fedd1
003245
003245
003245
003245
003245
003245
003245
003245
003245
003245
003245
003245
003245
003245
003245
003245
003245
003245
003245
00307e
008327
0103b6
001bf6
7f1d98
7fc03e
029388
054341
0536f8
02634b
7f841c
7ef0a1
0009d9
00f60a
005551
7ff4a4
00307e
00307e
00307e
00307e
00307e
00307e
00307e
00307e
00307e
00307e
00307e
00307e
00307e
00307e
00307e
00307e
00307e
00307e
00307e
003479
008123
010752
001b4c
7f237b
7fbaab
029f6e
05462a
0543c9
0263d7
7f82de
7ef50d
7ff8b4
00f140
00549f
7ffc40
003479
003479
003479
003479
003479
003479
003479
003479
003479
003479
003479
003479
003479
003479
003479
003479
003479
003479
003479
003028
00866c
0104a5
002017
7f2299
7fc27d
029807
0555f8
0547a6
0274dd
7f8398
7ef366
7ffe93
00da7b
004e42
7ffb53
003028
003028
003028
003028
003028
003028
003028
003028
003028
003028
003028
003028
003028
003028
003028
003028
003028
003028
003028
002a20
00826c
01098a
001d9d
7f270a
7fc1ac
029f45
054f1c
05564a
027872
7f935d
7ef412
7ffd0b
00dfec
00392a
7ff56e
002a20
002a20
002a20
002a20
002a20
002a20
002a20
002a20
002a20
002a20
002a20
002a20
002a20
002a20
002a20
002a20
002a20
002a20
002a20
001d6a
007cef
0105e7
002211
7f24c9
7fc5b6
029e86
0555b3
05500c
0285c5
7f969f
7f026b
7ffda7
00de88
003e1d
7fe23c
001d6a
001d6a
001d6a
001d6a
001d6a
001d6a
001d6a
001d6a
001d6a
001d6a
001d6a
001d6a
001d6a
001d6a
001d6a
001d6a
001d6a
001d6a
001d6a
001dca
0079a0
010479
00211e
7f25f1
7fc51f
029f93
055581
0551c3
028425
7f9a16
7f0344
000162
00deb0
003dc0
7fe385
001dca
001dca
001dca
001dca
001dca
001dca
001dca
001dca
001dca
001dca
001dca
001dca
001dca
001dca
001dca
001dca
001dca
001dca
001dca
001add
00795c
0106d0
002220
7f269c
7fc44c
029ffd
0554c2
0551e5
0282ee
7f9b3c
7f00cf
0000c8
00dc0b
003da3
7fe3c6
001add
001add
001add
001add
001add
001add
001add
001add
001add
001add
001add
001add
001add
001add
001add
001add
001add
001add
001add
001a4d
0077ef
0106ae
002343
7f271a
7fc49f
029f96
0554f5
055188
0282ff
7f9aa4
7f015e
7fff95
00dbc0
003c59
7fe3b7
001a4d
001a4d
001a4d
001a4d
001a4d
001a4d
001a4d
001a4d
001a4d
001a4d
001a4d
001a4d
001a4d
001a4d
001a4d
001a4d
001a4d
001a4d
001a4d
0013b3
007c05
011118
002435
7f1ec3
7fc105
029d33
0557e1
05500d
0285a6
7f9a27
7f05b1
7ffb7d
00e47e
003e7c
7fed21
0013b3
0013b3
0013b3
0013b3
0013b3
0013b3
0013b3
0013b3
0013b3
0013b3
0013b3
0013b3
0013b3
0013b3
0013b3
0013b3
0013b3
0013b3
0013b3
001403
007b9e
011157
0024d6
7f1ed1
7fc083
029cfb
0557bc
05503a
02858f
7f9a50
7f05a9
7ffbc0
00e43e
003f03
7fed42
001403
001403
001403
001403
001403
001403
001403
001403
001403
001403
001403
001403
001403
001403
001403
001403
001403
001403
001403
001c16
00729b
011cb9
001dc7
7f0cd8
7fbee1
02ab5d
055df2
055457
028083
7f9cdc
7f0115
7ffc97
00dcc7
004612
7fde2c
001c16
001c16
001c16
001c16
001c16
001c16
001c16
001c16
001c16
001c16
001c16
001c16
001c16
001c16
001c16
001c16
001c16
001c16
001c16
001d66
007ccc
011159
002c25
7f03f0
7fa832
02a94d
05701a
055c2e
0285b5
7f967d
7f044d
7ff6d0
00ddd6
003ca6
7fe715
001d66
001d66
001d66
001d66
001d66
001d66
001d66
001d66
001d66
001d66
001d66
001d66
001d66
001d66
001d66
001d66
001d66
001d66
001d66
002157
007d23
0113fc
002933
7f07a8
7fa5e3
02a36d
056f91
0560e1
0287bc
7f97d5
7f02a6
7ff7a5
00dc57
003cec
7fe4a4
002157
002157
002157
002157
002157
002157
002157
002157
002157
002157
002157
002157
002157
002157
002157
002157
002157
002157
002157
002c3f
007525
01134b
0023da
7f0d9e
7f9e5a
02a818
057b76
0561f5
027e36
7f93b8
7effec
7ffafb
00daa6
003ff3
7fe415
002c3f
002c3f
002c3f
002c3f
002c3f
002c3f
002c3f
002c3f
002c3f
002c3f
002c3f
002c3f
002c3f
002c3f
002c3f
002c3f
002c3f
002c3f
002c3f
002dc4
00843e
01083a
0022e5
7f0637
7fa69b
029da9
0581ed
05726c
027fb4
7f8689
7efa3a
7ff735
00df45
003d9c
7fe846
002dc4
002dc4
002dc4
002dc4
002dc4
002dc4
002dc4
002dc4
002dc4
002dc4
002dc4
002dc4
002dc4
002dc4
002dc4
002dc4
002dc4
002dc4
002dc4
002ebf
008467
0109d1
0021ba
7f061d
7fa5d3
029e88
0580d3
05731a
028170
7f86b1
7ef8d5
7ff69b
00dedf
003e18
7fe806
002ebf
002ebf
002ebf
002ebf
002ebf
002ebf
002ebf
002ebf
002ebf
002ebf
002ebf
002ebf
002ebf
002ebf
002ebf
002ebf
002ebf
002ebf
002ebf
002b15
0085ec
010a10
002432
7f044d
7fa5ab
029d52
05822c
057165
02827e
7f8962
7ef913
7ff472
00ddf0
003d7a
7fe8c7
002b15
002b15
002b15
002b15
002b15
002b15
002b15
002b15
002b15
002b15
002b15
002b15
002b15
002b15
002b15
002b15
002b15
002b15
002b15
002981
00805e
010c5e
002492
7f080b
7fa2ec
029d15
058056
057371
027fe7
7f8afc
7efd28
7ff4d0
00daaa
003c10
7fe7d7
002981
002981
002981
002981
002981
002981
002981
002981
002981
002981
002981
002981
002981
002981
002981
002981
002981
002981
002981
002894
007fd0
010a6b
002561
7f082c
7fa43c
029c1e
058040
0572cc
02809e
7f8a13
7efdb7
7ff63e
00dacb
003aea
7fe758
002894
002894
002894
002894
002894
002894
002894
002894
002894
002894
002894
002894
002894
002894
002894
002894
002894
002894
002894
00261f
008302
010c54
002c1e
7f055f
7fa3c6
029792
058394
057315
0282d8
7f8796
7f00da
7ff44b
00d5d5
003a76
7feb4f
00261f
00261f
00261f
00261f
00261f
00261f
00261f
00261f
00261f
00261f
00261f
00261f
00261f
00261f
00261f
00261f
00261f
00261f
00261f
002558
008142
010e9b
002d7b
7f0a2d
7fa1c7
02973e
058056
057574
02830c
7f892c
7eff14
7ff687
00d471
0036ed
7feafc
002558
002558
002558
002558
002558
002558
002558
002558
002558
002558
002558
002558
002558
002558
002558
002558
002558
002558
002558
0026ff
008419
011505
00251e
7f052c
7f9025
029e90
058188
058157
027a56
7f886b
7ef940
7ffd07
00cc3a
003c04
7ff7f2
0026ff
0026ff
0026ff
0026ff
0026ff
0026ff
0026ff
0026ff
0026ff
0026ff
0026ff
0026ff
0026ff
0026ff
0026ff
0026ff
0026ff
0026ff
0026ff
001d52
00867f
011925
002e6f
7ef907
7f88e0
0284f4
058c2b
058314
028b9a
7f7bc4
7ef828
7ff490
00d5ab
003016
7fff56
001d52
001d52
001d52
001d52
001d52
001d52
001d52
001d52
001d52
001d52
001d52
001d52
001d52
001d52
001d52
001d52
001d52
001d52
001d52
001c3b
008ac9
011814
002c9a
7ef4e4
7f8e43
02882d
059788
057e5b
028ad4
7f741a
7efdc5
7ff50c
00d96c
002be5
0004a1
001c3b
001c3b
001c3b
001c3b
001c3b
001c3b
001c3b
001c3b
001c3b
001c3b
001c3b
001c3b
001c3b
001c3b
001c3b
001c3b
001c3b
001c3b
001c3b
002754
008663
012975
002849
7eed79
7f7d84
029dfe
05a496
05ac5f
0277b6
7f70f8
7edebd
000bc7
00db62
003b19
7ff3a9
002754
002754
002754
002754
002754
002754
002754
002754
002754
002754
002754
002754
002754
002754
002754
002754
002754
002754
002754
000f8d
008e84
01263c
003503
7eea50
7f7815
0291ba
05b490
05b5ee
029968
7f62f8
7edc72
7ff50d
00ec07
003c88
7ffecb
000f8d
000f8d
000f8d
000f8d
000f8d
000f8d
000f8d
000f8d
000f8d
000f8d
000f8d
000f8d
000f8d
000f8d
000f8d
000f8d
000f8d
000f8d
000f8d
000f34
008c84
0126eb
0034bd
7eeb62
7f77d0
029145
05b387
05b746
029a35
7f65cd
7edb44
7ff4db
00ea1d
003dee
7ffee9
000f34
000f34
000f34
000f34
000f34
000f34
000f34
000f34
000f34
000f34
000f34
000f34
000f34
000f34
000f34
000f34
000f34
000f34
000f34
0013a8
008e6e
013204
0030f1
7eece2
7f71de
0292be
05b610
05bcff
0292bf
7f6156
7ecb88
7ffb63
00eb2e
004889
7ff723
0013a8
0013a8
0013a8
0013a8
0013a8
0013a8
0013a8
0013a8
0013a8
0013a8
0013a8
0013a8
0013a8
0013a8
0013a8
0013a8
0013a8
0013a8
0013a8
000cc0
008ad3
013077
0027f5
7eeff4
7f70a6
02978c
05b4de
05baf1
028e1d
7f675f
7ecf24
00081d
00e5e4
0047ab
7fee8d
000cc0
000cc0
000cc0
000cc0
000cc0
000cc0
000cc0
000cc0
000cc0
000cc0
000cc0
000cc0
000cc0
000cc0
000cc0
000cc0
000cc0
000cc0
000cc0
00102a
008037
012aec
002593
7ee226
7f755e
0295ad
05bc41
05b91b
028af6
7f6040
7ed86a
000da9
00f973
003f8b
7fed38
00102a
00102a
00102a
00102a
00102a
00102a
00102a
00102a
00102a
00102a
00102a
00102a
00102a
00102a
00102a
00102a
00102a
00102a
00102a
001150
008249
01247b
002236
7ee0b4
7f6cfd
02988a
05bb1e
05bd96
0289d9
7f5e56
7ed418
001349
00fcd1
004b69
7fe849
001150
001150
001150
001150
001150
001150
001150
001150
001150
001150
001150
001150
001150
001150
001150
001150
001150
001150
001150
001134
00815f
0122d6
00274e
7ee35d
7f6e21
029f2a
05b8d9
05be7b
02864c
7f5f37
7ed59b
0016b4
00f85c
0048be
7fdee4
001134
001134
001134
001134
001134
001134
001134
001134
001134
001134
001134
001134
001134
001134
001134
001134
001134
001134
001134
0015a8
008142
0121e4
00259b
7ee8a1
7f70e1
02a058
05bfb3
05bc23
028739
7f5b8b
7ed684
001844
00fbe4
004423
7fdc22
0015a8
0015a8
0015a8
0015a8
0015a8
0015a8
0015a8
0015a8
0015a8
0015a8
0015a8
0015a8
0015a8
0015a8
0015a8
0015a8
0015a8
0015a8
0015a8
000d46
008b2c
0121a4
002382
7ee4da
7f7c9a
02a677
05c254
05cb63
028201
7f5d9b
7ece59
001a4a
00ff5f
004c00
7fd1e1
000d46
000d46
000d46
000d46
000d46
000d46
000d46
000d46
000d46
000d46
000d46
000d46
000d46
000d46
000d46
000d46
000d46
000d46
000d46
000aca
00832e
012b17
002345
7ee2da
7f7900
02b1a3
05c82a
05cde4
02908b
7f58a2
7ed051
001281
01014d
004f52
7fd960
000aca
000aca
000aca
000aca
000aca
000aca
000aca
000aca
000aca
000aca
000aca
000aca
000aca
000aca
000aca
000aca
000aca
000aca
000aca
000c22
00819a
012603
002946
7ee2b3
7f77bb
02af59
05cf43
05d199
029222
7f61de
7ecd28
0013c1
00fc5b
00508c
7fdb7c
000c22
000c22
000c22
000c22
000c22
000c22
000c22
000c22
000c22
000c22
000c22
000c22
000c22
000c22
000c22
000c22
000c22
000c22
000c22
000c18
008214
012573
002777
7ee4d5
7f77ad
02aee5
05ce72
05d41f
029373
7f626f
7ed071
0012a1
00fccc
004ec9
7fdbeb
000c18
000c18
000c18
000c18
000c18
000c18
000c18
000c18
000c18
000c18
000c18
000c18
000c18
000c18
000c18
000c18
000c18
000c18
000c18
000c25
008212
012582
002765
7ee49c
7f77f0
02aee3
05ce63
05d405
0293c2
7f6298
7ed082
001308
00fca8
004ed7
7fdbb3
000c25
000c25
000c25
000c25
000c25
000c25
000c25
000c25
000c25
000c25
000c25
000c25
000c25
000c25
000c25
000c25
000c25
000c25
000c25
00094a
0081a4
01258b
0026e8
7ee52e
7f79c6
02acb6
05ce70
05d47a
029496
7f6005
7ecf2a
001274
00f94f
004ffb
7fdb3e
00094a
00094a
00094a
00094a
00094a
00094a
00094a
00094a
00094a
00094a
00094a
00094a
00094a
00094a
00094a
00094a
00094a
00094a
00094a
00094d
0081b7
01258d
0026e7
7ee531
7f79c2
02aca9
05ce7e
05d479
029492
7f5fff
7ecf3b
00127d
00f952
005011
7fdb36
00094d
00094d
00094d
00094d
00094d
00094d
00094d
00094d
00094d
00094d
00094d
00094d
00094d
00094d
00094d
00094d
00094d
00094d
00094d
000794
00811f
0121ed
00265c
7ee53d
7f7923
02ad62
05d0d3
05d1b6
0294a3
7f6094
7ed048
000f39
00f79d
004f55
7fd6f6
000794
000794
000794
000794
000794
000794
000794
000794
000794
000794
000794
000794
000794
000794
000794
000794
000794
000794
000794
0003ec
007e04
0120dc
001fd4
7ee442
7f7938
02ac44
05d221
05d5ea
028fa9
7f60b3
7ed155
00111e
00f1ba
004c42
7fd5a4
0003ec
0003ec
0003ec
0003ec
0003ec
0003ec
0003ec
0003ec
0003ec
0003ec
0003ec
0003ec
0003ec
0003ec
0003ec
0003ec
0003ec
0003ec
0003ec
7ffc46
00778a
011b5c
001df0
7ed8ae
7f777c
02ac6a
05d026
05d83a
02971d
7f57e0
7ed18d
0012fb
00f515
0041d3
7fd031
7ffc46
7ffc46
7ffc46
7ffc46
7ffc46
7ffc46
7ffc46
7ffc46
7ffc46
7ffc46
7ffc46
7ffc46
7ffc46
7ffc46
7ffc46
7ffc46
7ffc46
7ffc46
7ffc46
7ffa90
0073d6
011839
001b46
7ed7c3
7f71e1
02ab93
05d038
05d744
02983b
7f5b7b
7ecd47
001316
00f5fc
004373
7fcb24
7ffa90
7ffa90
7ffa90
7ffa90
7ffa90
7ffa90
7ffa90
7ffa90
7ffa90
7ffa90
7ffa90
7ffa90
7ffa90
7ffa90
7ffa90
7ffa90
7ffa90
7ffa90
7ffa90
7ffb85
007417
0118c6
001bbd
7ed828
7f7204
02ac69
05d058
05d741
02985f
7f5b50
7eccbc
0013b9
00f5f7
004350
7fcae5
7ffb85
7ffb85
7ffb85
7ffb85
7ffb85
7ffb85
7ffb85
7ffb85
7ffb85
7ffb85
7ffb85
7ffb85
7ffb85
7ffb85
7ffb85
7ffb85
7ffb85
7ffb85
7ffb85
7ff6df
007dbd
011b58
00214f
7edcdf
7f7605
02adc9
05d8c6
05d884
029842
7f5cc0
7ecb0c
000e4a
00fc64
004326
7fc989
7ff6df
7ff6df
7ff6df
7ff6df
7ff6df
7ff6df
7ff6df
7ff6df
7ff6df
7ff6df
7ff6df
7ff6df
7ff6df
7ff6df
7ff6df
7ff6df
7ff6df
7ff6df
7ff6df
7ff41b
00789c
0125fd
002425
7ee304
7f7b39
02b234
05da4a
05e1d2
0299a6
7f5ca0
7ecca3
000c6d
00f665
004a3d
7fc95b
7ff41b
7ff41b
7ff41b
7ff41b
7ff41b
7ff41b
7ff41b
7ff41b
7ff41b
7ff41b
7ff41b
7ff41b
7ff41b
7ff41b
7ff41b
7ff41b
7ff41b
7ff41b
7ff41b
7ff42d
0076b7
01227b
002b6d
7ee4f4
7f7f6d
02b5c3
05dd50
05e2dc
02a003
7f5d94
7ecc8d
000d83
00f51f
004623
7fce34
7ff42d
7ff42d
7ff42d
7ff42d
7ff42d
7ff42d
7ff42d
7ff42d
7ff42d
7ff42d
7ff42d
7ff42d
7ff42d
7ff42d
7ff42d
7ff42d
7ff42d
7ff42d
7ff42d
7ff452
0076cc
012050
002768
7eed4c
7f81a6
02ba94
05e164
05e653
02a133
7f64df
7ecda4
000d6a
00f65e
0044ad
7fc981
7ff452
7ff452
7ff452
7ff452
7ff452
7ff452
7ff452
7ff452
7ff452
7ff452
7ff452
7ff452
7ff452
7ff452
7ff452
7ff452
7ff452
7ff452
7ff452
7ff6ee
0076e9
012060
0025b4
7eea24
7f8833
02bc52
05e52c
05e987
02a3eb
7f65ce
7ed35d
000e45
00f64a
0045a7
7fc85b
7ff6ee
7ff6ee
7ff6ee
7ff6ee
7ff6ee
7ff6ee
7ff6ee
7ff6ee
7ff6ee
7ff6ee
7ff6ee
7ff6ee
7ff6ee
7ff6ee
7ff6ee
7ff6ee
7ff6ee
7ff6ee
7ff6ee
7fefec
007c66
01209d
0025d7
7ee690
7f8191
02ca17
05e8d7
05f17b
02aaa6
7f6b85
7ed554
001a4e
00f817
00457e
7fca69
7fefec
7fefec
7fefec
7fefec
7fefec
7fefec
7fefec
7fefec
7fefec
7fefec
7fefec
7fefec
7fefec
7fefec
7fefec
7fefec
7fefec
7fefec
7fefec
7ff0e8
0074d9
012687
002618
7ee6b6
7f7db6
02c2f2
05f7ae
05f56f
02b337
7f72c6
7edb7d
001c6c
01050f
00476f
7fca3d
7ff0e8
7ff0e8
7ff0e8
7ff0e8
7ff0e8
7ff0e8
7ff0e8
7ff0e8
7ff0e8
7ff0e8
7ff0e8
7ff0e8
7ff0e8
7ff0e8
7ff0e8
7ff0e8
7ff0e8
7ff0e8
7ff0e8
7ff0b6
0074cf
0126cd
0025e0
7ee6b3
7f7db4
02c315
05f7f0
05f4e4
02b312
7f7276
7edb39
001c32
0104fb
0046f6
7fca2a
7ff0b6
7ff0b6
7ff0b6
7ff0b6
7ff0b6
7ff0b6
7ff0b6
7ff0b6
7ff0b6
7ff0b6
7ff0b6
7ff0b6
7ff0b6
7ff0b6
7ff0b6
7ff0b6
7ff0b6
7ff0b6
7ff0b6
7ff425
0072fd
012676
002877
7ee4ab
7f7d9d
02c307
05f942
05f757
02adfa
7f711a
7ed848
0019b4
0102dd
00463b
7fc5b6
7ff425
7ff425
7ff425
7ff425
7ff425
7ff425
7ff425
7ff425
7ff425
7ff425
7ff425
7ff425
7ff425
7ff425
7ff425
7ff425
7ff425
7ff425
7ff425
7ff3e6
007472
0125b0
002852
7ee5c4
7f7cc0
02c2fd
05f93c
05f7e6
02af04
7f6ef0
7ed7b4
001874
0101ce
004555
7fc566
7ff3e6
7ff3e6
7ff3e6
7ff3e6
7ff3e6
7ff3e6
7ff3e6
7ff3e6
7ff3e6
7ff3e6
7ff3e6
7ff3e6
7ff3e6
7ff3e6
7ff3e6
7ff3e6
7ff3e6
7ff3e6
7ff3e6
7ff364
007440
0126d9
0027b4
7ee5a6
7f7da0
02c24d
05f934
05f7e1
02af76
7f6fc4
7ed5fb
0017fe
0100cf
00447d
7fc4af
7ff364
7ff364
7ff364
7ff364
7ff364
7ff364
7ff364
7ff364
7ff364
7ff364
7ff364
7ff364
7ff364
7ff364
7ff364
7ff364
7ff364
7ff364
7ff364
7ff356
007424
0126ce
0027f2
7ee585
7f7d99
02c27b
05f90f
05f7df
02af75
7f6fdb
7ed627
0017a1
0100b6
004447
7fc481
7ff356
7ff356
7ff356
7ff356
7ff356
7ff356
7ff356
7ff356
7ff356
7ff356
7ff356
7ff356
7ff356
7ff356
7ff356
7ff356
7ff356
7ff356
7ff356
7ff1f7
0073aa
0125da
002795
7ee7b3
7f7c71
02c243
05fab4
05f694
02af66
7f6fd2
7ed6fe
00192f
00fd79
00436a
7fc2a2
7ff1f7
7ff1f7
7ff1f7
7ff1f7
7ff1f7
7ff1f7
7ff1f7
7ff1f7
7ff1f7
7ff1f7
7ff1f7
7ff1f7
7ff1f7
7ff1f7
7ff1f7
7ff1f7
7ff1f7
7ff1f7
7ff1f7
7fed28
007006
012497
00250e
7ee6bc
7f823c
02bf32
05fa21
05faf2
02abf9
7f6fab
7ed6e7
001b69
01019b
003ad3
7fc058
7fed28
7fed28
7fed28
7fed28
7fed28
7fed28
7fed28
7fed28
7fed28
7fed28
7fed28
7fed28
7fed28
7fed28
7fed28
7fed28
7fed28
7fed28
7fed28
7febc7
0070a2
01250d
002536
7ee70e
7f825b
02be75
05fa84
05fb04
02ab6a
7f701a
7ed6eb
001b6b
010152
003a4c
7fc16f
7febc7
7febc7
7febc7
7febc7
7febc7
7febc7
7febc7
7febc7
7febc7
7febc7
7febc7
7febc7
7febc7
7febc7
7febc7
7febc7
7febc7
7febc7
7febc7
7fe4bd
0065e4
0129d0
0028d1
7ee84d
7f84dc
02bf69
05f4c5
05fe0d
02abfb
7f6bc5
7eda4f
001b90
010167
003815
7fbd55
7fe4bd
7fe4bd
7fe4bd
7fe4bd
7fe4bd
7fe4bd
7fe4bd
7fe4bd
7fe4bd
7fe4bd
7fe4bd
7fe4bd
7fe4bd
7fe4bd
7fe4bd
7fe4bd
7fe4bd
7fe4bd
7fe4bd
7fe491
0064fa
01286b
00296e
7ee8c4
7f8505
02bfbc
05f4e4
05fd4e
02ac5f
7f6bd7
7ed9bf
001c00
01016b
003817
7fbd0b
7fe491
7fe491
7fe491
7fe491
7fe491
7fe491
7fe491
7fe491
7fe491
7fe491
7fe491
7fe491
7fe491
7fe491
7fe491
7fe491
7fe491
7fe491
7fe491
7fe174
0065bc
012c83
002fae
7ee5fe
7f82eb
02bf01
05f36e
05fcbf
02afb7
7f6a12
7ed96a
001e85
00ff71
003800
7fbcfe
7fe174
7fe174
7fe174
7fe174
7fe174
7fe174
7fe174
7fe174
7fe174
7fe174
7fe174
7fe174
7fe174
7fe174
7fe174
7fe174
7fe174
7fe174
7fe174
7fe13b
00656a
012c96
003019
7ee6a2
7f82a2
02bec9
05f35a
05fc98
02afa8
7f6a69
7ed93b
001e7c
00ffb3
0037cc
7fbcfb
7fe13b
7fe13b
7fe13b
7fe13b
7fe13b
7fe13b
7fe13b
7fe13b
7fe13b
7fe13b
7fe13b
7fe13b
7fe13b
7fe13b
7fe13b
7fe13b
7fe13b
7fe13b
7fe13b
7fe20c
00696e
01326c
002eab
7edef2
7f76e7
02c3fc
05f749
05fdf5
02b264
7f6b74
7ed2f4
0021cd
010051
003311
7fc0af
7fe20c
7fe20c
7fe20c
7fe20c
7fe20c
7fe20c
7fe20c
7fe20c
7fe20c
7fe20c
7fe20c
7fe20c
7fe20c
7fe20c
7fe20c
7fe20c
7fe20c
7fe20c
7fe20c
7fddef
006a58
0136eb
003533
7edd59
7f6e4d
02b6dc
05fd1a
06025c
02b3ea
7f6e83
7ed41f
001ac7
010407
0033c2
7fbb64
7fddef
7fddef
7fddef
7fddef
7fddef
7fddef
7fddef
7fddef
7fddef
7fddef
7fddef
7fddef
7fddef
7fddef
7fddef
7fddef
7fddef
7fddef
7fddef
7fd72a
006e5d
013605
0030cd
7ed6f5
7f6fdd
02bf45
0609f0
05fcaa
02af9a
7f6d04
7ed120
0019a2
010ae5
003020
7fbab6
7fd72a
7fd72a
7fd72a
7fd72a
7fd72a
7fd72a
7fd72a
7fd72a
7fd72a
7fd72a
7fd72a
7fd72a
7fd72a
7fd72a
7fd72a
7fd72a
7fd72a
7fd72a
7fd72a
7fbd05
005f6a
013ee6
002ed1
7ecd3e
7f61c1
02c2b8
061c83
061901
02a308
7f6380
7ecdd3
001305
01085f
003f49
7fb2b1
7fbd05
7fbd05
7fbd05
7fbd05
7fbd05
7fbd05
7fbd05
7fbd05
7fbd05
7fbd05
7fbd05
7fbd05
7fbd05
7fbd05
7fbd05
7fbd05
7fbd05
7fbd05
7fbd05
7fb383
005020
013628
003402
7ecc15
7f5c13
02ba78
061e87
0623dd
02b39a
7f5c26
7ec842
001117
010481
003dcf
7fbb8e
7fb383
7fb383
7fb383
7fb383
7fb383
7fb383
7fb383
7fb383
7fb383
7fb383
7fb383
7fb383
7fb383
7fb383
7fb383
7fb383
7fb383
7fb383
7fb383
7fb318
0051f0
013912
0035ac
7ecb17
7f5c4b
02bb8d
062019
06237a
02b187
7f58fc
7ec9a9
001226
0104df
003e8b
7fbbd6
7fb318
7fb318
7fb318
7fb318
7fb318
7fb318
7fb318
7fb318
7fb318
7fb318
7fb318
7fb318
7fb318
7fb318
7fb318
7fb318
7fb318
7fb318
7fb318
7fb14c
005068
013fb8
00405d
7ed134
7f58a9
02bc5c
062411
06293f
02b01d
7f5162
7ebe11
00174a
0108c3
003fe4
7fbe8a
7fb14c
7fb14c
7fb14c
7fb14c
7fb14c
7fb14c
7fb14c
7fb14c
7fb14c
7fb14c
7fb14c
7fb14c
7fb14c
7fb14c
7fb14c
7fb14c
7fb14c
7fb14c
7fb14c
7fb0f7
00501e
013f79
00416c
7ed2e8
7f59a2
02bbc7
062432
0629e1
02b108
7f5128
7ebcda
001570
010995
004083
7fbec1
7fb0f7
7fb0f7
7fb0f7
7fb0f7
7fb0f7
7fb0f7
7fb0f7
7fb0f7
7fb0f7
7fb0f7
7fb0f7
7fb0f7
7fb0f7
7fb0f7
7fb0f7
7fb0f7
7fb0f7
7fb0f7
7fb0f7
7fb089
005199
0140c1
004284
7ece25
7f51fb
02b767
0626cb
06294c
02ae30
7f4d07
7ebddc
001adf
0111e0
003cd5
7fbbf8
7fb089
7fb089
7fb089
7fb089
7fb089
7fb089
7fb089
7fb089
7fb089
7fb089
7fb089
7fb089
7fb089
7fb089
7fb089
7fb089
7fb089
7fb089
7fb089
7fb04d
0051c3
01402e
004204
7ecdb8
7f53d1
02ba5c
06287b
06284a
02ae69
7f4e20
7ebf74
001a7b
010fc5
0039a0
7fbd64
7fb04d
7fb04d
7fb04d
7fb04d
7fb04d
7fb04d
7fb04d
7fb04d
7fb04d
7fb04d
7fb04d
7fb04d
7fb04d
7fb04d
7fb04d
7fb04d
7fb04d
7fb04d
7fb04d
7fb406
005053
014133
003e7b
7ecaa8
7f5135
02c5b2
063ab4
0632b5
02a838
7f4f81
7ec639
002450
010d5d
002cad
7fa9a1
7fb406
7fb406
7fb406
7fb406
7fb406
7fb406
7fb406
7fb406
7fb406
7fb406
7fb406
7fb406
7fb406
7fb406
7fb406
7fb406
7fb406
7fb406
7fb406
7fad6e
0053f7
013fcb
003f7a
7ec733
7f4e36
02c325
0645c9
064487
02b268
7f4973
7ec792
002aee
0116fa
002a52
7f9cf7
7fad6e
7fad6e
7fad6e
7fad6e
7fad6e
7fad6e
7fad6e
7fad6e
7fad6e
7fad6e
7fad6e
7fad6e
7fad6e
7fad6e
7fad6e
7fad6e
7fad6e
7fad6e
7fad6e
7fb0c2
0051db
0140f5
003f07
7ec784
7f4d1b
02c230
0644f8
064812
02b81a
7f4cb4
7ec5a2
002b5c
011917
002d65
7f9c36
7fb0c2
7fb0c2
7fb0c2
7fb0c2
7fb0c2
7fb0c2
7fb0c2
7fb0c2
7fb0c2
7fb0c2
7fb0c2
7fb0c2
7fb0c2
7fb0c2
7fb0c2
7fb0c2
7fb0c2
7fb0c2
7fb0c2
7fb171
004fcd
014241
003e4f
7ec7ca
7f4ce8
02c2de
06458f
064892
02b5ea
7f4930
7ec39f
002c8d
0118d2
002c16
7f9a50
7fb171
7fb171
7fb171
7fb171
7fb171
7fb171
7fb171
7fb171
7fb171
7fb171
7fb171
7fb171
7fb171
7fb171
7fb171
7fb171
7fb171
7fb171
7fb171
7fafb8
0050b9
013f7e
00400e
7ec6d2
7f4d47
02c29a
064679
06495d
02b697
7f463f
7ebee5
0029d9
011a6c
002bba
7f988e
7fafb8
7fafb8
7fafb8
7fafb8
7fafb8
7fafb8
7fafb8
7fafb8
7fafb8
7fafb8
7fafb8
7fafb8
7fafb8
7fafb8
7fafb8
7fafb8
7fafb8
7fafb8
7fafb8
7fafa6
00508c
013f95
003fc7
7ec6fe
7f4d2e
02c2a3
064672
064974
02b6ab
7f4650
7ebe99
00295f
011a26
002be3
7f9884
7fafa6
7fafa6
7fafa6
7fafa6
7fafa6
7fafa6
7fafa6
7fafa6
7fafa6
7fafa6
7fafa6
7fafa6
7fafa6
7fafa6
7fafa6
7fafa6
7fafa6
7fafa6
7fafa6
7faf0b
0050e9
014082
003f47
7ec87b
7f4c3c
02c328
06463e
064998
02b62c
7f45e2
7ebe3b
002af4
011cb2
002d57
7f97a6
7faf0b
7faf0b
7faf0b
7faf0b
7faf0b
7faf0b
7faf0b
7faf0b
7faf0b
7faf0b
7faf0b
7faf0b
7faf0b
7faf0b
7faf0b
7faf0b
7faf0b
7faf0b
7faf0b
7faeb2
0050b9
01409e
003f8f
7ec854
7f4cb0
02c2de
064666
064988
02b637
7f45bb
7ebe19
002ad7
011d2d
002e1e
7f9817
7faeb2
7faeb2
7faeb2
7faeb2
7faeb2
7faeb2
7faeb2
7faeb2
7faeb2
7faeb2
7faeb2
7faeb2
7faeb2
7faeb2
7faeb2
7faeb2
7faeb2
7faeb2
7faeb2
7fad1b
005233
014167
003f15
7ec71f
7f4d55
02c0ee
06479f
0648da
02b679
7f458b
7ebebd
002b65
011da6
002c0e
7f94c6
7fad1b
7fad1b
7fad1b
7fad1b
7fad1b
7fad1b
7fad1b
7fad1b
7fad1b
7fad1b
7fad1b
7fad1b
7fad1b
7fad1b
7fad1b
7fad1b
7fad1b
7fad1b
7fad1b
7fad01
005249
014151
003f09
7ec725
7f4d66
02c0e4
0647ba
0648c8
02b682
7f4587
7ebebf
002b5b
011d9d
002c07
7f94e3
7fad01
7fad01
7fad01
7fad01
7fad01
7fad01
7fad01
7fad01
7fad01
7fad01
7fad01
7fad01
7fad01
7fad01
7fad01
7fad01
7fad01
7fad01
7fad01
7fabba
004fd8
01437a
003d06
7ec613
7f4e0b
02c288
0646d8
064b6a
02b4d7
7f4672
7ebe64
002b9b
011cbd
002b45
7f943d
7fabba
7fabba
7fabba
7fabba
7fabba
7fabba
7fabba
7fabba
7fabba
7fabba
7fabba
7fabba
7fabba
7fabba
7fabba
7fabba
7fabba
7fabba
7fabba
7fabdd
004e82
0140ed
003f48
7ec3f9
7f4cec
02c335
06488f
064a7e
02b797
7f44b3
7ebf5a
002b3b
011d00
002a5b
7f9372
7fabdd
7fabdd
7fabdd
7fabdd
7fabdd
7fabdd
7fabdd
7fabdd
7fabdd
7fabdd
7fabdd
7fabdd
7fabdd
7fabdd
7fabdd
7fabdd
7fabdd
7fabdd
7fabdd
7fac0b
004e92
01404f
003e1b
7ec503
7f4bf4
02c2b1
0648de
064b48
02b72a
7f45f7
7ebe8c
002bac
011cd4
002a7a
7f9306
7fac0b
7fac0b
7fac0b
7fac0b
7fac0b
7fac0b
7fac0b
7fac0b
7fac0b
7fac0b
7fac0b
7fac0b
7fac0b
7fac0b
7fac0b
7fac0b
7fac0b
7fac0b
7fac0b
7fabef
004e79
014046
003e6e
7ec5a1
7f4b67
02c333
064923
064b1d
02b6bf
7f4630
7ebde0
002c18
011c97
002a91
7f92f5
7fabef
7fabef
7fabef
7fabef
7fabef
7fabef
7fabef
7fabef
7fabef
7fabef
7fabef
7fabef
7fabef
7fabef
7fabef
7fabef
7fabef
7fabef
7fabef
7fab87
004e2e
014003
003e56
7ec682
7f4d16
02c1b4
064a86
064bda
02b64c
7f450d
7ebe7b
002a46
011dbd
0029ee
7f9333
7fab87
7fab87
7fab87
7fab87
7fab87
7fab87
7fab87
7fab87
7fab87
7fab87
7fab87
7fab87
7fab87
7fab87
7fab87
7fab87
7fab87
7fab87
7fab87
7fab89
004e06
013fe6
003e3c
7ec679
7f4d6c
02c258
0649f4
064c61
02b694
7f44e1
7ebe0c
002a81
011d0b
002a5e
7f92f4
7fab89
7fab89
7fab89
7fab89
7fab89
7fab89
7fab89
7fab89
7fab89
7fab89
7fab89
7fab89
7fab89
7fab89
7fab89
7fab89
7fab89
7fab89
7fab89
7fab94
004e0b
013fa2
003e0b
7ec64d
7f4d5c
02c2eb
064b0d
064b67
02b77b
7f455c
7ebdc1
0029c3
011d70
00292e
7f93b4
7fab94
7fab94
7fab94
7fab94
7fab94
7fab94
7fab94
7fab94
7fab94
7fab94
7fab94
7fab94
7fab94
7fab94
7fab94
7fab94
7fab94
7fab94
7fab94
7fac66
004e18
013fa7
003dbd
7ec615
7f4d2a
02c2d9
064bb5
064ca8
02b65d
7f4664
7ebe4d
00296d
011c97
0029a2
7f9258
7fac66
7fac66
7fac66
7fac66
7fac66
7fac66
7fac66
7fac66
7fac66
7fac66
7fac66
7fac66
7fac66
7fac66
7fac66
7fac66
7fac66
7fac66
7fac66
7fac2a
004df7
013fa5
003dbc
7ec620
7f4d32
02c2e0
064bb7
064c8e
02b62b
7f468f
7ebe24
002957
011ca4
0029c3
7f9246
7fac2a
7fac2a
7fac2a
7fac2a
7fac2a
7fac2a
7fac2a
7fac2a
7fac2a
7fac2a
7fac2a
7fac2a
7fac2a
7fac2a
7fac2a
7fac2a
7fac2a
7fac2a
7fac2a
7fabfc
004d63
013f55
003db7
7ec61d
7f4d4f
02c2f5
064bc9
064c94
02b5eb
7f4615
7ebe8f
0028f2
011c6e
0029e3
7f9297
7fabfc
7fabfc
7fabfc
7fabfc
7fabfc
7fabfc
7fabfc
7fabfc
7fabfc
7fabfc
7fabfc
7fabfc
7fabfc
7fabfc
7fabfc
7fabfc
7fabfc
7fabfc
7fabfc
7fac1e
004d16
013e5a
003d2f
7ec614
7f4d4b
02c326
064bec
064cb4
02b5f6
7f45a8
7ebdc0
0029a9
011bc3
002988
7f92cd
7fac1e
7fac1e
7fac1e
7fac1e
7fac1e
7fac1e
7fac1e
7fac1e
7fac1e
7fac1e
7fac1e
7fac1e
7fac1e
7fac1e
7fac1e
7fac1e
7fac1e
7fac1e
7fac1e
7fab5e
004d56
013dca
003b5a
7ec516
7f4d3b
02c31e
064c49
064cf6
02b631
7f45bc
7ebcf5
002825
011d1a
002849
7f9223
7fab5e
7fab5e
7fab5e
7fab5e
7fab5e
7fab5e
7fab5e
7fab5e
7fab5e
7fab5e
7fab5e
7fab5e
7fab5e
7fab5e
7fab5e
7fab5e
7fab5e
7fab5e
7fab5e
7fab41
004cf4
013dea
003b11
7ec427
7f4cba
02c316
064c45
064d25
02b652
7f45da
7ebcff
0027be
011c55
0028f7
7f9180
7fab41
7fab41
7fab41
7fab41
7fab41
7fab41
7fab41
7fab41
7fab41
7fab41
7fab41
7fab41
7fab41
7fab41
7fab41
7fab41
7fab41
7fab41
7fab41
7faa3d
004d22
013e87
003adc
7ec49c
7f4e3a
02c3e6
064c51
064d2a
02b605
7f45a3
7ebccd
0027ac
011cfb
002a34
7f9066
7faa3d
7faa3d
7faa3d
7faa3d
7faa3d
7faa3d
7faa3d
7faa3d
7faa3d
7faa3d
7faa3d
7faa3d
7faa3d
7faa3d
7faa3d
7faa3d
7faa3d
7faa3d
7faa3d
7fab16
004c35
013eb1
003b6b
7ec46b
7f4ea5
02c544
064d0e
064d35
02b60a
7f455d
7ebc9b
00277f
011ceb
002acb
7f9187
7fab16
7fab16
7fab16
7fab16
7fab16
7fab16
7fab16
7fab16
7fab16
7fab16
7fab16
7fab16
7fab16
7fab16
7fab16
7fab16
7fab16
7fab16
7fab16
7fab9e
004dda
013ce7
003bbc
7ec580
7f4e47
02c613
064fb4
064ea4
02b620
7f4567
7ebc14
00271e
011c94
002aac
7f92ac
7fab9e
7fab9e
7fab9e
7fab9e
7fab9e
7fab9e
7fab9e
7fab9e
7fab9e
7fab9e
7fab9e
7fab9e
7fab9e
7fab9e
7fab9e
7fab9e
7fab9e
7fab9e
7fab9e
7fabdf
004e6f
013eb6
0039c5
7ec5d9
7f4f78
02c5ac
065097
06518d
02b7b3
7f4580
7ebc1f
00268a
011c29
002a4c
7f928a
7fabdf
7fabdf
7fabdf
7fabdf
7fabdf
7fabdf
7fabdf
7fabdf
7fabdf
7fabdf
7fabdf
7fabdf
7fabdf
7fabdf
7fabdf
7fabdf
7fabdf
7fabdf
7fabdf
7fac65
004e92
013f06
003abd
7ec4cb
7f4fa7
02c64f
065060
065207
02b942
7f4658
7ebc2c
002690
011bd9
002a13
7f9256
7fac65
7fac65
7fac65
7fac65
7fac65
7fac65
7fac65
7fac65
7fac65
7fac65
7fac65
7fac65
7fac65
7fac65
7fac65
7fac65
7fac65
7fac65
7fac65
7fac88
004ed7
013f18
003ae6
7ec54a
7f4f1c
02c667
0650b4
0651ea
02b980
7f4725
7ebc9b
002696
011bdc
0029ea
7f9238
7fac88
7fac88
7fac88
7fac88
7fac88
7fac88
7fac88
7fac88
7fac88
7fac88
7fac88
7fac88
7fac88
7fac88
7fac88
7fac88
7fac88
7fac88
7fac88
7fab9e
004f17
013f97
003b07
7ec595
7f5006
02c568
0650e1
065284
02b94c
7f4798
7ebe14
002762
011be8
0029ef
7f91ec
7fab9e
7fab9e
7fab9e
7fab9e
7fab9e
7fab9e
7fab9e
7fab9e
7fab9e
7fab9e
7fab9e
7fab9e
7fab9e
7fab9e
7fab9e
7fab9e
7fab9e
7fab9e
7fab9e
7fab72
004e1c
013fdc
003b90
7ec5b9
7f5057
02c664
064fce
0652b4
02b9f2
7f4760
7ebe90
0028f8
011cc4
0029fc
7f91f2
7fab72
7fab72
7fab72
7fab72
7fab72
7fab72
7fab72
7fab72
7fab72
7fab72
7fab72
7fab72
7fab72
7fab72
7fab72
7fab72
7fab72
7fab72
7fab72
7fab55
004dfc
013f26
003bc2
7ec61c
7f5071
02c69f
065085
0651ed
02ba15
7f47d8
7ebe67
002952
011dea
002a9b
7f91fb
7fab55
7fab55
7fab55
7fab55
7fab55
7fab55
7fab55
7fab55
7fab55
7fab55
7fab55
7fab55
7fab55
7fab55
7fab55
7fab55
7fab55
7fab55
7fab55
7fab04
004de5
013f0d
003b32
7ec643
7f50bf
02c6b3
0650b3
06527d
02b978
7f47f3
7ebec6
002932
011e30
002b83
7f9278
7fab04
7fab04
7fab04
7fab04
7fab04
7fab04
7fab04
7fab04
7fab04
7fab04
7fab04
7fab04
7fab04
7fab04
7fab04
7fab04
7fab04
7fab04
7fab04
7faaf2
004dea
013f0e
003b33
7ec64c
7f50bc
02c6ad
0650b1
065279
02b96e
7f47fd
7ebec4
00292b
011e32
002b7e
7f9267
7faaf2
7faaf2
7faaf2
7faaf2
7faaf2
7faaf2
7faaf2
7faaf2
7faaf2
7faaf2
7faaf2
7faaf2
7faaf2
7faaf2
7faaf2
7faaf2
7faaf2
7faaf2
7faaf2
7faa3d
004f45
013ea0
003b14
7ec62a
7f4ff9
02c6e2
06511b
065294
02b9ad
7f48c1
7ebdef
002950
011eb3
002b52
7f92c7
7faa3d
7faa3d
7faa3d
7faa3d
7faa3d
7faa3d
7faa3d
7faa3d
7faa3d
7faa3d
7faa3d
7faa3d
7faa3d
7faa3d
7faa3d
7faa3d
7faa3d
7faa3d
7faa3d
7fa9d3
004e86
01400e
003aa0
7ec60a
7f4fd5
02c614
065153
065304
02b9ca
7f4903
7ebebd
00286f
011eda
002bda
7f9299
7fa9d3
7fa9d3
7fa9d3
7fa9d3
7fa9d3
7fa9d3
7fa9d3
7fa9d3
7fa9d3
7fa9d3
7fa9d3
7fa9d3
7fa9d3
7fa9d3
7fa9d3
7fa9d3
7fa9d3
7fa9d3
7fa9d3
7fa9c5
004e7d
013ffd
003abf
7ec600
7f4fd2
02c610
065141
065308
02b9d3
7f4905
7ebec2
002880
011ec6
002bdd
7f92a4
7fa9c5
7fa9c5
7fa9c5
7fa9c5
7fa9c5
7fa9c5
7fa9c5
7fa9c5
7fa9c5
7fa9c5
7fa9c5
7fa9c5
7fa9c5
7fa9c5
7fa9c5
7fa9c5
7fa9c5
7fa9c5
7fa9c5
7fa94c
004e33
013fcb
003a64
7ec6ad
7f4f9b
02c600
065130
0652a7
02b9ed
7f493a
7ebecf
00289f
011f27
002b72
7f92b6
7fa94c
7fa94c
7fa94c
7fa94c
7fa94c
7fa94c
7fa94c
7fa94c
7fa94c
7fa94c
7fa94c
7fa94c
7fa94c
7fa94c
7fa94c
7fa94c
7fa94c
7fa94c
7fa94c
7fa94f
004e45
013fd6
003a6b
7ec6bb
7f4f80
02c608
065132
0652a9
02b9fc
7f4935
7ebec6
00289c
011f22
002b62
7f92c6
7fa94f
7fa94f
7fa94f
7fa94f
7fa94f
7fa94f
7fa94f
7fa94f
7fa94f
7fa94f
7fa94f
7fa94f
7fa94f
7fa94f
7fa94f
7fa94f
7fa94f
7fa94f
7fa94f
7fa948
004e40
013fb9
003a59
7ec6af
7f4f6a
02c630
065125
0652a5
02b9f8
7f491e
7ebecc
0028a8
011f25
002b69
7f92dc
7fa948
7fa948
7fa948
7fa948
7fa948
7fa948
7fa948
7fa948
7fa948
7fa948
7fa948
7fa948
7fa948
7fa948
7fa948
7fa948
7fa948
7fa948
7fa948
7fa98d
004e33
013fb0
003a23
7ec68e
7f4f53
02c608
065171
06528c
02b9f1
7f4916
7ebea1
0028b3
011f3c
002b6f
7f92e9
7fa98d
7fa98d
7fa98d
7fa98d
7fa98d
7fa98d
7fa98d
7fa98d
7fa98d
7fa98d
7fa98d
7fa98d
7fa98d
7fa98d
7fa98d
7fa98d
7fa98d
7fa98d
7fa98d
7fa9a7
004d8d
013fcd
003a37
7ec70c
7f4f9f
02c63c
0651cf
0651d6
02ba2a
7f4925
7ebeb2
002918
011f1f
002b37
7f92da
7fa9a7
7fa9a7
7fa9a7
7fa9a7
7fa9a7
7fa9a7
7fa9a7
7fa9a7
7fa9a7
7fa9a7
7fa9a7
7fa9a7
7fa9a7
7fa9a7
7fa9a7
7fa9a7
7fa9a7
7fa9a7
7fa9a7
7faa42
004db1
013eed
003a5f
7ec728
7f504a
02c6a3
065215
065255
02b934
7f4972
7ebec7
00292f
011fa8
002b10
7f928e
7faa42
7faa42
7faa42
7faa42
7faa42
7faa42
7faa42
7faa42
7faa42
7faa42
7faa42
7faa42
7faa42
7faa42
7faa42
7faa42
7faa42
7faa42
7faa42
7fa6a4
005017
013f7c
0036ec
7ec7c6
7f50b8
02c948
0653af
06536c
02bb2d
7f45a7
7ebffa
002983
012005
002d2f
7f91f7
7fa6a4
7fa6a4
7fa6a4
7fa6a4
7fa6a4
7fa6a4
7fa6a4
7fa6a4
7fa6a4
7fa6a4
7fa6a4
7fa6a4
7fa6a4
7fa6a4
7fa6a4
7fa6a4
7fa6a4
7fa6a4
7fa6a4
7fa251
004a79
014336
0037cb
7ec26a
7f51ad
02c9f4
0657cb
0655ea
02bcde
7f48b8
7eba16
002b60
012087
002dc0
7f9543
7fa251
7fa251
7fa251
7fa251
7fa251
7fa251
7fa251
7fa251
7fa251
7fa251
7fa251
7fa251
7fa251
7fa251
7fa251
7fa251
7fa251
7fa251
7fa251
7fa2d2
0047c2
013fb0
003a21
7ec2f6
7f4e50
02ca8e
065837
06587e
02be6e
7f49c8
7ebc02
0027ad
0121b2
002e12
7f959e
7fa2d2
7fa2d2
7fa2d2
7fa2d2
7fa2d2
7fa2d2
7fa2d2
7fa2d2
7fa2d2
7fa2d2
7fa2d2
7fa2d2
7fa2d2
7fa2d2
7fa2d2
7fa2d2
7fa2d2
7fa2d2
7fa2d2
7fa193
004791
0140b5
003b74
7ec214
7f4e1b
02cbd1
0657fd
065855
02bd75
7f4931
7ebb9b
0026f3
012315
002da1
7f957f
7fa193
7fa193
7fa193
7fa193
7fa193
7fa193
7fa193
7fa193
7fa193
7fa193
7fa193
7fa193
7fa193
7fa193
7fa193
7fa193
7fa193
7fa193
7fa193
7fa0ee
004563
01405f
003d3c
7ec465
7f4c91
02cb74
065a33
0657ef
02bd2d
7f477e
7eba93
00263f
0121d0
00300f
7f94ba
7fa0ee
7fa0ee
7fa0ee
7fa0ee
7fa0ee
7fa0ee
7fa0ee
7fa0ee
7fa0ee
7fa0ee
7fa0ee
7fa0ee
7fa0ee
7fa0ee
7fa0ee
7fa0ee
7fa0ee
7fa0ee
7fa0ee
7fa0e4
004548
014006
003d2e
7ec4ad
7f4cef
02cb35
065a24
065849
02bd1c
7f4772
7eba4d
002614
0121b3
002fdb
7f951d
7fa0e4
7fa0e4
7fa0e4
7fa0e4
7fa0e4
7fa0e4
7fa0e4
7fa0e4
7fa0e4
7fa0e4
7fa0e4
7fa0e4
7fa0e4
7fa0e4
7fa0e4
7fa0e4
7fa0e4
7fa0e4
7fa0e4
7fa0d8
00454e
014018
003d6e
7ec4b6
7f4cba
02caf0
065a51
065853
02bcda
7f477d
7eba55
002645
0121d1
002fef
7f9542
7fa0d8
7fa0d8
7fa0d8
7fa0d8
7fa0d8
7fa0d8
7fa0d8
7fa0d8
7fa0d8
7fa0d8
7fa0d8
7fa0d8
7fa0d8
7fa0d8
7fa0d8
7fa0d8
7fa0d8
7fa0d8
7fa0d8
7fa0a3
004585
013ff8
003d14
7ec387
7f4c8b
02cbe8
065b93
06577d
02bca7
7f48b0
7eba1d
00261e
0120e4
002f5f
7f94e0
7fa0a3
7fa0a3
7fa0a3
7fa0a3
7fa0a3
7fa0a3
7fa0a3
7fa0a3
7fa0a3
7fa0a3
7fa0a3
7fa0a3
7fa0a3
7fa0a3
7fa0a3
7fa0a3
7fa0a3
7fa0a3
7fa0a3
7fa1a9
0044ea
01409b
003cb7
7ec27f
7f490e
02cb5f
065e6e
065b33
02ba30
7f481c
7ebda7
00257b
012072
002ca7
7f933a
7fa1a9
7fa1a9
7fa1a9
7fa1a9
7fa1a9
7fa1a9
7fa1a9
7fa1a9
7fa1a9
7fa1a9
7fa1a9
7fa1a9
7fa1a9
7fa1a9
7fa1a9
7fa1a9
7fa1a9
7fa1a9
7fa1a9
7fa24c
0045a3
01402d
003d2a
7ec23d
7f4854
02c8ea
065e0e
065d36
02bccd
7f465f
7ebd3e
0027f9
011fff
002c56
7f914f
7fa24c
7fa24c
7fa24c
7fa24c
7fa24c
7fa24c
7fa24c
7fa24c
7fa24c
7fa24c
7fa24c
7fa24c
7fa24c
7fa24c
7fa24c
7fa24c
7fa24c
7fa24c
7fa24c
7fa284
004591
014018
003d35
7ec230
7f485b
02c8fe
065e52
065d40
02bc94
7f4616
7ebd6e
002804
011fb9
002c62
7f9157
7fa284
7fa284
7fa284
7fa284
7fa284
7fa284
7fa284
7fa284
7fa284
7fa284
7fa284
7fa284
7fa284
7fa284
7fa284
7fa284
7fa284
7fa284
7fa284
7fa3ad
004719
013f9c
003ca9
7ec282
7f4804
02c92e
065edd
065f18
02bcdc
7f4492
7ebb76
002952
012007
002a81
7f91ad
7fa3ad
7fa3ad
7fa3ad
7fa3ad
7fa3ad
7fa3ad
7fa3ad
7fa3ad
7fa3ad
7fa3ad
7fa3ad
7fa3ad
7fa3ad
7fa3ad
7fa3ad
7fa3ad
7fa3ad
7fa3ad
7fa3ad
7fa419
0047a3
014052
003c6f
7ec241
7f482a
02c905
065ef3
065f58
02bdb7
7f44b3
7ebac1
002867
0120a2
002aa5
7f90cd
7fa419
7fa419
7fa419
7fa419
7fa419
7fa419
7fa419
7fa419
7fa419
7fa419
7fa419
7fa419
7fa419
7fa419
7fa419
7fa419
7fa419
7fa419
7fa419
7fa369
0046a2
013f09
003abd
7ec2c8
7f48c3
02c8aa
065f52
065f21
02bd1c
7f42a9
7eba71
002a12
0122cd
002934
7f9076
7fa369
7fa369
7fa369
7fa369
7fa369
7fa369
7fa369
7fa369
7fa369
7fa369
7fa369
7fa369
7fa369
7fa369
7fa369
7fa369
7fa369
7fa369
7fa369
7fa32f
004647
013e85
003a14
7ec1e9
7f4908
02c8f8
065f23
065f52
02bd00
7f4259
7eb964
0029e9
0123a8
002a51
7f8fb8
7fa32f
7fa32f
7fa32f
7fa32f
7fa32f
7fa32f
7fa32f
7fa32f
7fa32f
7fa32f
7fa32f
7fa32f
7fa32f
7fa32f
7fa32f
7fa32f
7fa32f
7fa32f
7fa32f
7fa32d
004671
013ec8
003a76
7ec267
7f49ae
02c8c3
065ee7
065f74
02bcdb
7f426d
7eb99f
002ab2
0123c6
0029ac
7f8ee1
7fa32d
7fa32d
7fa32d
7fa32d
7fa32d
7fa32d
7fa32d
7fa32d
7fa32d
7fa32d
7fa32d
7fa32d
7fa32d
7fa32d
7fa32d
7fa32d
7fa32d
7fa32d
7fa32d
7fa06c
004673
013e7d
0039ff
7ec1ba
7f48d1
02c7a0
065f42
065fdb
02bc9e
7f42ad
7eb97a
002a4a
012267
002976
7f9000
7fa06c
7fa06c
7fa06c
7fa06c
7fa06c
7fa06c
7fa06c
7fa06c
7fa06c
7fa06c
7fa06c
7fa06c
7fa06c
7fa06c
7fa06c
7fa06c
7fa06c
7fa06c
7fa06c
7fa00f
00440f
013e7f
0039be
7ec153
7f483b
02c6e0
065e45
06602a
02bcf7
7f4278
7eb9b1
002a2a
01220d
002845
7f8fd1
7fa00f
7fa00f
7fa00f
7fa00f
7fa00f
7fa00f
7fa00f
7fa00f
7fa00f
7fa00f
7fa00f
7fa00f
7fa00f
7fa00f
7fa00f
7fa00f
7fa00f
7fa00f
7fa00f
7f9e27
0044c2
014322
0039b9
7ec1d0
7f4902
02c802
065fb8
066214
02bc5d
7f41ca
7eba17
0029bd
01224a
0028f3
7f921f
7f9e27
7f9e27
7f9e27
7f9e27
7f9e27
7f9e27
7f9e27
7f9e27
7f9e27
7f9e27
7f9e27
7f9e27
7f9e27
7f9e27
7f9e27
7f9e27
7f9e27
7f9e27
7f9e27
7fa05c
00422f
014414
003ffe
7ec1c9
7f49ab
02c90f
066140
06640a
02bef3
7f40fa
7eb92c
002a47
0121b7
002945
7f930a
7fa05c
7fa05c
7fa05c
7fa05c
7fa05c
7fa05c
7fa05c
7fa05c
7fa05c
7fa05c
7fa05c
7fa05c
7fa05c
7fa05c
7fa05c
7fa05c
7fa05c
7fa05c
7fa05c
7f9ee1
0043df
01421c
0040b7
7ec693
7f49a5
02c990
06620d
066536
02c072
7f42f4
7eb88d
002993
012220
0028d5
7f9349
7f9ee1
7f9ee1
7f9ee1
7f9ee1
7f9ee1
7f9ee1
7f9ee1
7f9ee1
7f9ee1
7f9ee1
7f9ee1
7f9ee1
7f9ee1
7f9ee1
7f9ee1
7f9ee1
7f9ee1
7f9ee1
7f9ee1
7f9e6b
0042a4
014382
003f14
7ec72c
7f4da0
02c98b
066278
0665e0
02c16b
7f4433
7eba31
00290f
01218a
00292c
7f92ec
7f9e6b
7f9e6b
7f9e6b
7f9e6b
7f9e6b
7f9e6b
7f9e6b
7f9e6b
7f9e6b
7f9e6b
7f9e6b
7f9e6b
7f9e6b
7f9e6b
7f9e6b
7f9e6b
7f9e6b
7f9e6b
7f9e6b
7f9e79
0041f5
0141b0
004128
7ec4c0
7f4e84
02cf72
066271
066680
02c268
7f45a4
7ebc0a
002b7f
0120c6
00284e
7f936e
7f9e79
7f9e79
7f9e79
7f9e79
7f9e79
7f9e79
7f9e79
7f9e79
7f9e79
7f9e79
7f9e79
7f9e79
7f9e79
7f9e79
7f9e79
7f9e79
7f9e79
7f9e79
7f9e79
7f9dd4
00420f
014074
003de0
7ec87f
7f4a26
02d10d
066d15
066674
02c388
7f476c
7ebea4
002ed3
01252b
0026ed
7f91df
7f9dd4
7f9dd4
7f9dd4
7f9dd4
7f9dd4
7f9dd4
7f9dd4
7f9dd4
7f9dd4
7f9dd4
7f9dd4
7f9dd4
7f9dd4
7f9dd4
7f9dd4
7f9dd4
7f9dd4
7f9dd4
7f9dd4
7fa0fd
0041b0
014083
003d2a
7ec69b
7f4c4e
02ce8a
066e01
066c93
02c381
7f4811
7ebfaa
003052
012715
002974
7f9114
7fa0fd
7fa0fd
7fa0fd
7fa0fd
7fa0fd
7fa0fd
7fa0fd
7fa0fd
7fa0fd
7fa0fd
7fa0fd
7fa0fd
7fa0fd
7fa0fd
7fa0fd
7fa0fd
7fa0fd
7fa0fd
7fa0fd
7fa100
0041f2
01407b
003d2b
7ec68c
7f4c26
02ceb7
066dcc
066ca6
02c401
7f4810
7ebfb7
003067
012734
00299c
7f9149
7fa100
7fa100
7fa100
7fa100
7fa100
7fa100
7fa100
7fa100
7fa100
7fa100
7fa100
7fa100
7fa100
7fa100
7fa100
7fa100
7fa100
7fa100
7fa100
7fa0bb
0041f5
0140be
003d23
7ec68d
7f4c16
02ce8e
066df9
066c70
02c414
7f4892
7ebfb6
003074
012749
0029bb
7f9171
7fa0bb
7fa0bb
7fa0bb
7fa0bb
7fa0bb
7fa0bb
7fa0bb
7fa0bb
7fa0bb
7fa0bb
7fa0bb
7fa0bb
7fa0bb
7fa0bb
7fa0bb
7fa0bb
7fa0bb
7fa0bb
7fa0bb
7fa0bb
0041f5
0140be
003d23
7ec68d
7f4c16
02ce8e
066df9
066c70
02c414
7f4892
7ebfb6
003074
012749
0029bb
7f9171
7fa0bb
7fa0bb
7fa0bb
7fa0bb
7fa0bb
7fa0bb
7fa0bb
7fa0bb
7fa0bb
7fa0bb
7fa0bb
7fa0bb
7fa0bb
7fa0bb
7fa0bb
7fa0bb
7fa0bb
7fa0bb
7fa0bb
7fa0bc
0041f8
0140f1
003d20
7ec65a
7f4c1b
02ce8d
066e04
066c8d
02c3f1
7f48b9
7ebfa7
003013
012749
0029b0
7f9160
7fa0bc
7fa0bc
7fa0bc
7fa0bc
7fa0bc
7fa0bc
7fa0bc
7fa0bc
7fa0bc
7fa0bc
7fa0bc
7fa0bc
7fa0bc
7fa0bc
7fa0bc
7fa0bc
7fa0bc
7fa0bc
7fa0bc
7fa05a
0041fd
0140fe
003df5
7ec64e
7f4b4a
02cea5
066e00
066cbb
02c46d
7f482b
7ec04c
002fd6
0125b6
0029b1
7f9135
7fa05a
7fa05a
7fa05a
7fa05a
7fa05a
7fa05a
7fa05a
7fa05a
7fa05a
7fa05a
7fa05a
7fa05a
7fa05a
7fa05a
7fa05a
7fa05a
7fa05a
7fa05a
7fa05a
7fa056
0041a5
014102
003e00
7ec70c
7f4b3f
02cdeb
066e15
066cb7
02c496
7f4899
7ebfcd
003069
01257f
00284a
7f9136
7fa056
7fa056
7fa056
7fa056
7fa056
7fa056
7fa056
7fa056
7fa056
7fa056
7fa056
7fa056
7fa056
7fa056
7fa056
7fa056
7fa056
7fa056
7fa056
7fa053
0041a5
014109
003dff
7ec70b
7f4b2e
02cdeb
066e24
066cb5
02c496
7f4895
7ebfc3
003073
012572
00284e
7f9154
7fa053
7fa053
7fa053
7fa053
7fa053
7fa053
7fa053
7fa053
7fa053
7fa053
7fa053
7fa053
7fa053
7fa053
7fa053
7fa053
7fa053
7fa053
7fa053
7f9fdf
004165
014111
003ec6
7ec6ff
7f4b13
02cc36
066e3b
066e5e
02c464
7f489c
7ebf63
002f75
012694
0026fc
7f91d0
7f9fdf
7f9fdf
7f9fdf
7f9fdf
7f9fdf
7f9fdf
7f9fdf
7f9fdf
7f9fdf
7f9fdf
7f9fdf
7f9fdf
7f9fdf
7f9fdf
7f9fdf
7f9fdf
7f9fdf
7f9fdf
7f9fdf
7f9fba
00418e
014127
003ec2
7ec6b6
7f4b17
02cc3f
066ed8
066e55
02c3c9
7f48ad
7ebf60
002f97
0126ef
002692
7f924a
7f9fba
7f9fba
7f9fba
7f9fba
7f9fba
7f9fba
7f9fba
7f9fba
7f9fba
7f9fba
7f9fba
7f9fba
7f9fba
7f9fba
7f9fba
7f9fba
7f9fba
7f9fba
7f9fba
7f9f55
0040ef
0141db
003f24
7ec6a8
7f49df
02cc50
066f01
0670fd
02c3a5
7f4615
7ebfad
002f8a
012783
00281d
7f9085
7f9f55
7f9f55
7f9f55
7f9f55
7f9f55
7f9f55
7f9f55
7f9f55
7f9f55
7f9f55
7f9f55
7f9f55
7f9f55
7f9f55
7f9f55
7f9f55
7f9f55
7f9f55
7f9f55
7f9e38
004110
01420f
003ee8
7ec687
7f49e3
02ccb7
066efb
0670ef
02c2c3
7f4620
7ec088
002f70
012787
0027eb
7f9001
7f9e38
7f9e38
7f9e38
7f9e38
7f9e38
7f9e38
7f9e38
7f9e38
7f9e38
7f9e38
7f9e38
7f9e38
7f9e38
7f9e38
7f9e38
7f9e38
7f9e38
7f9e38
7f9e38
7f9f5a
00400b
01422d
003f17
7ec650
7f49c5
02ccba
066f59
0670e9
02c2b6
7f4551
7ec092
003039
01276f
0027ee
7f8fd3
7f9f5a
7f9f5a
7f9f5a
7f9f5a
7f9f5a
7f9f5a
7f9f5a
7f9f5a
7f9f5a
7f9f5a
7f9f5a
7f9f5a
7f9f5a
7f9f5a
7f9f5a
7f9f5a
7f9f5a
7f9f5a
7f9f5a
7f9ce7
004285
013ff4
003f59
7ec6b8
7f494d
02cc78
066f61
0671b7
02c2aa
7f4535
7ebecf
003050
012926
0027ba
7f8fdb
7f9ce7
7f9ce7
7f9ce7
7f9ce7
7f9ce7
7f9ce7
7f9ce7
7f9ce7
7f9ce7
7f9ce7
7f9ce7
7f9ce7
7f9ce7
7f9ce7
7f9ce7
7f9ce7
7f9ce7
7f9ce7
7f9ce7
7f9cb8
004153
014129
003e43
7ec6d8
7f4980
02cc3d
066f41
0671bb
02c30e
7f452f
7ebec1
002f74
012931
002890
7f8fc2
7f9cb8
7f9cb8
7f9cb8
7f9cb8
7f9cb8
7f9cb8
7f9cb8
7f9cb8
7f9cb8
7f9cb8
7f9cb8
7f9cb8
7f9cb8
7f9cb8
7f9cb8
7f9cb8
7f9cb8
7f9cb8
7f9cb8
7f9ce6
004162
01418f
003ddb
7ec735
7f4975
02cc2b
066f54
0671c5
02c30c
7f450d
7ebec2
002f78
01297a
00288c
7f8f7a
7f9ce6
7f9ce6
7f9ce6
7f9ce6
7f9ce6
7f9ce6
7f9ce6
7f9ce6
7f9ce6
7f9ce6
7f9ce6
7f9ce6
7f9ce6
7f9ce6
7f9ce6
7f9ce6
7f9ce6
7f9ce6
7f9ce6
7f9c34
0041cc
0141b2
003ec8
7ec644
7f4a4c
02cc11
066f2c
0671f2
02c324
7f4509
7ebe73
002f7c
012984
002936
7f8f70
7f9c34
7f9c34
7f9c34
7f9c34
7f9c34
7f9c34
7f9c34
7f9c34
7f9c34
7f9c34
7f9c34
7f9c34
7f9c34
7f9c34
7f9c34
7f9c34
7f9c34
7f9c34
7f9c34
7f9be4
0040ec
014238
003ef5
7ec76e
7f491d
02cd20
066f0c
0671c0
02c35d
7f4528
7ebe6e
002f19
012989
002943
7f9046
7f9be4
7f9be4
7f9be4
7f9be4
7f9be4
7f9be4
7f9be4
7f9be4
7f9be4
7f9be4
7f9be4
7f9be4
7f9be4
7f9be4
7f9be4
7f9be4
7f9be4
7f9be4
7f9be4
7f9bb2
004082
01410e
003fa8
7ec7aa
7f4aac
02cb8b
067076
067195
02c31a
7f4574
7ebe97
002f13
012905
00294a
7f9057
7f9bb2
7f9bb2
7f9bb2
7f9bb2
7f9bb2
7f9bb2
7f9bb2
7f9bb2
7f9bb2
7f9bb2
7f9bb2
7f9bb2
7f9bb2
7f9bb2
7f9bb2
7f9bb2
7f9bb2
7f9bb2
7f9bb2
7f9bdb
004066
0140d4
003f05
7ec80b
7f4acc
02cc64
066f99
06725a
02c302
7f454f
7ebec0
002f29
012901
002902
7f905b
7f9bdb
7f9bdb
7f9bdb
7f9bdb
7f9bdb
7f9bdb
7f9bdb
7f9bdb
7f9bdb
7f9bdb
7f9bdb
7f9bdb
7f9bdb
7f9bdb
7f9bdb
7f9bdb
7f9bdb
7f9bdb
7f9bdb
7f9882
00413e
014045
003dd6
7ec4b6
7f4ccc
02cd10
06740f
066dd4
02c70f
7f44d5
7ebe00
003003
012978
0028f2
7f8ee2
7f9882
7f9882
7f9882
7f9882
7f9882
7f9882
7f9882
7f9882
7f9882
7f9882
7f9882
7f9882
7f9882
7f9882
7f9882
7f9882
7f9882
7f9882
7f9882
7f995e
003e2f
01410a
003d53
7ec3a1
7f49c0
02cee4
0674ad
0671e8
02c2ec
7f4889
7ebd91
002f54
012a3f
00295e
7f8ed3
7f995e
7f995e
7f995e
7f995e
7f995e
7f995e
7f995e
7f995e
7f995e
7f995e
7f995e
7f995e
7f995e
7f995e
7f995e
7f995e
7f995e
7f995e
7f995e
7f978a
003ee4
013e86
003df5
7ec335
7f48dc
02cc62
06762e
06726a
02c647
7f4522
7ec09d
002ef8
0129af
002a02
7f8f2c
7f978a
7f978a
7f978a
7f978a
7f978a
7f978a
7f978a
7f978a
7f978a
7f978a
7f978a
7f978a
7f978a
7f978a
7f978a
7f978a
7f978a
7f978a
7f978a
7f978f
003e7f
013eac
003d6b
7ec357
7f48c5
02cc31
0675a4
0672bc
02c662
7f45d9
7ebfe2
002f9e
01299b
0029e3
7f8f4f
7f978f
7f978f
7f978f
7f978f
7f978f
7f978f
7f978f
7f978f
7f978f
7f978f
7f978f
7f978f
7f978f
7f978f
7f978f
7f978f
7f978f
7f978f
7f978f
7f96d9
003e6c
013ffd
003ce7
7ec527
7f484f
02cc7e
067648
06748a
02c54c
7f457b
7ebd76
003211
012768
002a24
7f8fb6
7f96d9
7f96d9
7f96d9
7f96d9
7f96d9
7f96d9
7f96d9
7f96d9
7f96d9
7f96d9
7f96d9
7f96d9
7f96d9
7f96d9
7f96d9
7f96d9
7f96d9
7f96d9
7f96d9
7f9648
003d4b
013fdf
003eff
7ec456
7f4b31
02cbc3
0676c2
06758e
02c82b
7f43c1
7ebce0
002e37
012b4e
0026a5
7f901e
7f9648
7f9648
7f9648
7f9648
7f9648
7f9648
7f9648
7f9648
7f9648
7f9648
7f9648
7f9648
7f9648
7f9648
7f9648
7f9648
7f9648
7f9648
7f9648
7f9504
003ce9
013f1c
003eeb
7ec5c0
7f4aa4
02cdb5
067643
0675e1
02c8db
7f45b1
7ebbb5
002dd2
0128b4
002947
7f8dc1
7f9504
7f9504
7f9504
7f9504
7f9504
7f9504
7f9504
7f9504
7f9504
7f9504
7f9504
7f9504
7f9504
7f9504
7f9504
7f9504
7f9504
7f9504
7f9504
7f9422
003bf6
013ed2
003e58
7ec5b1
7f4bb3
02cd4b
0677b9
067582
02c919
7f4635
7ebd29
002cf2
012868
002753
7f8fba
7f9422
7f9422
7f9422
7f9422
7f9422
7f9422
7f9422
7f9422
7f9422
7f9422
7f9422
7f9422
7f9422
7f9422
7f9422
7f9422
7f9422
7f9422
7f9422
7f956b
0039f8
013cae
003db2
7ec466
7f4b91
02cfb0
0676ca
0678cf
02c843
7f46c1
7ebe53
00303c
01266e
0026a8
7f8b51
7f956b
7f956b
7f956b
7f956b
7f956b
7f956b
7f956b
7f956b
7f956b
7f956b
7f956b
7f956b
7f956b
7f956b
7f956b
7f956b
7f956b
7f956b
7f956b
7f9508
003af1
013b2b
003c12
7ec3e8
7f4a96
02cf96
06789b
067819
02cac4
7f461e
7ebebd
00311e
0128ed
002528
7f8acf
7f9508
7f9508
7f9508
7f9508
7f9508
7f9508
7f9508
7f9508
7f9508
7f9508
7f9508
7f9508
7f9508
7f9508
7f9508
7f9508
7f9508
7f9508
7f9508
7f9566
003ad7
013b6c
003bad
7ec37b
7f4a75
02cf54
067894
067892
02ca94
7f46c5
7ebe92
003139
012928
0025ce
7f8a6b
7f9566
7f9566
7f9566
7f9566
7f9566
7f9566
7f9566
7f9566
7f9566
7f9566
7f9566
7f9566
7f9566
7f9566
7f9566
7f9566
7f9566
7f9566
7f9566
7f93b8
0039a4
013bbf
003ad9
7ec4c1
7f4bd4
02cfbe
067968
0678a7
02c909
7f475e
7ebc73
0031c2
0128cd
00250e
7f884e
7f93b8
7f93b8
7f93b8
7f93b8
7f93b8
7f93b8
7f93b8
7f93b8
7f93b8
7f93b8
7f93b8
7f93b8
7f93b8
7f93b8
7f93b8
7f93b8
7f93b8
7f93b8
7f93b8
7f94a7
00384c
013ac9
003b1b
7ec418
7f4cd9
02d0d6
0679bc
067950
02c91a
7f4623
7ebced
003010
01293a
0024c5
7f87b4
7f94a7
7f94a7
7f94a7
7f94a7
7f94a7
7f94a7
7f94a7
7f94a7
7f94a7
7f94a7
7f94a7
7f94a7
7f94a7
7f94a7
7f94a7
7f94a7
7f94a7
7f94a7
7f94a7
7f94a7
003907
0139bc
003a5b
7ec44c
7f4c54
02d1a2
067a97
067992
02c99e
7f4630
7ebbf6
00306f
0127e6
00251a
7f877b
7f94a7
7f94a7
7f94a7
7f94a7
7f94a7
7f94a7
7f94a7
7f94a7
7f94a7
7f94a7
7f94a7
7f94a7
7f94a7
7f94a7
7f94a7
7f94a7
7f94a7
7f94a7
7f94a7
7f9497
003907
013abb
0038ee
7ec347
7f4c9a
02d0ee
067bac
067abc
02c9f8
7f46e4
7ebc08
002f20
012868
00234d
7f87ef
7f9497
7f9497
7f9497
7f9497
7f9497
7f9497
7f9497
7f9497
7f9497
7f9497
7f9497
7f9497
7f9497
7f9497
7f9497
7f9497
7f9497
7f9497
7f9497
7f951f
0038fe
013abb
003978
7ec281
7f4c0c
02d114
067b4a
067b52
02ca99
7f4714
7ebc69
002f29
0127b2
002393
7f86f5
7f951f
7f951f
7f951f
7f951f
7f951f
7f951f
7f951f
7f951f
7f951f
7f951f
7f951f
7f951f
7f951f
7f951f
7f951f
7f951f
7f951f
7f951f
7f951f
7f94d2
003889
013ac2
003978
7ec20a
7f4cb5
02d18c
067b29
067ba5
02ca18
7f4689
7ebc3f
002ed5
0127a9
00242e
7f86b8
7f94d2
7f94d2
7f94d2
7f94d2
7f94d2
7f94d2
7f94d2
7f94d2
7f94d2
7f94d2
7f94d2
7f94d2
7f94d2
7f94d2
7f94d2
7f94d2
7f94d2
7f94d2
7f94d2
7f9485
003807
0139fa
003984
7ec20a
7f4bea
02d2ac
067bf7
067b6c
02caa6
7f45ad
7ebb52
002e8d
01271a
00241f
7f87c1
7f9485
7f9485
7f9485
7f9485
7f9485
7f9485
7f9485
7f9485
7f9485
7f9485
7f9485
7f9485
7f9485
7f9485
7f9485
7f9485
7f9485
7f9485
7f9485
7f92f8
003798
01393d
003863
7ec21b
7f4bea
02d186
067d9a
067c97
02ca54
7f467b
7eba13
002d35
0126b2
002350
7f87ac
7f92f8
7f92f8
7f92f8
7f92f8
7f92f8
7f92f8
7f92f8
7f92f8
7f92f8
7f92f8
7f92f8
7f92f8
7f92f8
7f92f8
7f92f8
7f92f8
7f92f8
7f92f8
7f92f8
7f9215
003667
0138e7
0037d2
7ec13d
7f4bf7
02d186
067cb8
067dd8
02cb39
7f463c
7ebab1
002c40
0125aa
002300
7f870d
7f9215
7f9215
7f9215
7f9215
7f9215
7f9215
7f9215
7f9215
7f9215
7f9215
7f9215
7f9215
7f9215
7f9215
7f9215
7f9215
7f9215
7f9215
7f9215
7f91fa
003601
01385e
0037ab
7ec0fc
7f4b93
02d18b
067cb8
067d73
02cbc9
7f46a2
7eba94
002c86
01253c
00228a
7f86e9
7f91fa
7f91fa
7f91fa
7f91fa
7f91fa
7f91fa
7f91fa
7f91fa
7f91fa
7f91fa
7f91fa
7f91fa
7f91fa
7f91fa
7f91fa
7f91fa
7f91fa
7f91fa
7f91fa
7f91b6
003618
0138b9
003825
7ec11e
7f4bcd
02d1e4
067cb2
067d73
02cc23
7f4620
7eba37
002c9f
0124fc
0022ec
7f8753
7f91b6
7f91b6
7f91b6
7f91b6
7f91b6
7f91b6
7f91b6
7f91b6
7f91b6
7f91b6
7f91b6
7f91b6
7f91b6
7f91b6
7f91b6
7f91b6
7f91b6
7f91b6
7f91b6
7f913e
003599
0138e4
0038cf
7ec202
7f4c0d
02d250
067d58
067d68
02cc23
7f46c9
7eb945
002bf2
01252b
002274
7f880b
7f913e
7f913e
7f913e
7f913e
7f913e
7f913e
7f913e
7f913e
7f913e
7f913e
7f913e
7f913e
7f913e
7f913e
7f913e
7f913e
7f913e
7f913e
7f913e
7f9180
003574
0138bd
0038dc
7ec236
7f4c53
02d263
067d79
067d9b
02cc1f
7f46c9
7eb978
002ba7
0124f6
002282
7f87e6
7f9180
7f9180
7f9180
7f9180
7f9180
7f9180
7f9180
7f9180
7f9180
7f9180
7f9180
7f9180
7f9180
7f9180
7f9180
7f9180
7f9180
7f9180
7f9180
7f8fd4
0036af
013810
003825
7ec275
7f4d49
02d3ae
067dd5
067e38
02cd10
7f46ba
7eb978
002c9c
012397
002187
7f882a
7f8fd4
7f8fd4
7f8fd4
7f8fd4
7f8fd4
7f8fd4
7f8fd4
7f8fd4
7f8fd4
7f8fd4
7f8fd4
7f8fd4
7f8fd4
7f8fd4
7f8fd4
7f8fd4
7f8fd4
7f8fd4
7f8fd4
7f8fc6
003341
013a99
0036c2
7ec0fd
7f4dcb
02d5a8
06807d
067ef6
02ce53
7f48aa
7eb95a
002c9c
01258e
001eb7
7f8627
7f8fc6
7f8fc6
7f8fc6
7f8fc6
7f8fc6
7f8fc6
7f8fc6
7f8fc6
7f8fc6
7f8fc6
7f8fc6
7f8fc6
7f8fc6
7f8fc6
7f8fc6
7f8fc6
7f8fc6
7f8fc6
7f8fc6
7f8b81
003333
013711
00395e
7ebf8f
7f4c48
02d62e
068286
0681b2
02cf17
7f49f7
7ebb58
002c7d
01258e
0020bd
7f8342
7f8b81
7f8b81
7f8b81
7f8b81
7f8b81
7f8b81
7f8b81
7f8b81
7f8b81
7f8b81
7f8b81
7f8b81
7f8b81
7f8b81
7f8b81
7f8b81
7f8b81
7f8b81
7f8b81
7f8c63
003183
01370b
0037f8
7ec097
7f4bb7
02d595
0682bb
06827f
02d02b
7f4a44
7ebbdb
002d46
012581
0020bd
7f840e
7f8c63
7f8c63
7f8c63
7f8c63
7f8c63
7f8c63
7f8c63
7f8c63
7f8c63
7f8c63
7f8c63
7f8c63
7f8c63
7f8c63
7f8c63
7f8c63
7f8c63
7f8c63
7f8c63
7f8c27
00313c
013792
0037f9
7ec107
7f4b64
02d5c2
0682ea
06826e
02cfea
7f49ed
7ebbc2
002d1c
012541
0020c0
7f840e
7f8c27
7f8c27
7f8c27
7f8c27
7f8c27
7f8c27
7f8c27
7f8c27
7f8c27
7f8c27
7f8c27
7f8c27
7f8c27
7f8c27
7f8c27
7f8c27
7f8c27
7f8c27
7f8c27
7f8c26
0030de
013723
0038cb
7ec109
7f4c12
02d541
068330
0682b8
02cfd0
7f4988
7ebb3a
002cf6
012500
00205d
7f8413
7f8c26
7f8c26
7f8c26
7f8c26
7f8c26
7f8c26
7f8c26
7f8c26
7f8c26
7f8c26
7f8c26
7f8c26
7f8c26
7f8c26
7f8c26
7f8c26
7f8c26
7f8c26
7f8c26
7f8c25
0030de
01372b
0038d5
7ec0f5
7f4c11
02d530
06833b
0682b1
02cfc9
7f498a
7ebb43
002d02
012503
002062
7f841c
7f8c25
7f8c25
7f8c25
7f8c25
7f8c25
7f8c25
7f8c25
7f8c25
7f8c25
7f8c25
7f8c25
7f8c25
7f8c25
7f8c25
7f8c25
7f8c25
7f8c25
7f8c25
7f8c25
7f8a74
0030d1
01372b
00396a
7ec1a6
7f4abd
02d52b
068222
068380
02cf57
7f4911
7ebb6c
002da3
0125dc
00209e
7f8483
7f8a74
7f8a74
7f8a74
7f8a74
7f8a74
7f8a74
7f8a74
7f8a74
7f8a74
7f8a74
7f8a74
7f8a74
7f8a74
7f8a74
7f8a74
7f8a74
7f8a74
7f8a74
7f8a74
7f8a31
0031ee
013733
003969
7ec142
7f4a47
02d60b
068224
068439
02cecd
7f495b
7ebbbb
002d87
012571
00200e
7f845a
7f8a31
7f8a31
7f8a31
7f8a31
7f8a31
7f8a31
7f8a31
7f8a31
7f8a31
7f8a31
7f8a31
7f8a31
7f8a31
7f8a31
7f8a31
7f8a31
7f8a31
7f8a31
7f8a31
7f8d02
00312e
013a65
003980
7ec141
7f492b
02d4bb
0684a5
068441
02d0df
7f47d2
7ebc91
002e6a
012522
001edc
7f82be
7f8d02
7f8d02
7f8d02
7f8d02
7f8d02
7f8d02
7f8d02
7f8d02
7f8d02
7f8d02
7f8d02
7f8d02
7f8d02
7f8d02
7f8d02
7f8d02
7f8d02
7f8d02
7f8d02
7f8c58
00308d
013a8f
0038ca
7ec13b
7f492b
02d4f9
0684ef
0683b2
02d0dd
7f475c
7ebce8
002e3a
0124ef
001eed
7f8301
7f8c58
7f8c58
7f8c58
7f8c58
7f8c58
7f8c58
7f8c58
7f8c58
7f8c58
7f8c58
7f8c58
7f8c58
7f8c58
7f8c58
7f8c58
7f8c58
7f8c58
7f8c58
7f8c58
7f8c6b
002e59
01387a
003957
7ebede
7f4919
02d4f9
0685c0
0684a9
02cf03
7f4756
7ebb60
002f5b
012450
001e45
7f833b
7f8c6b
7f8c6b
7f8c6b
7f8c6b
7f8c6b
7f8c6b
7f8c6b
7f8c6b
7f8c6b
7f8c6b
7f8c6b
7f8c6b
7f8c6b
7f8c6b
7f8c6b
7f8c6b
7f8c6b
7f8c6b
7f8c6b
7f8b9d
002e6a
013683
00377c
7ebf5b
7f46fe
02d4e9
0685c0
068563
02cfdf
7f45b0
7ebb5a
002dfe
012552
001db7
7f82a5
7f8b9d
7f8b9d
7f8b9d
7f8b9d
7f8b9d
7f8b9d
7f8b9d
7f8b9d
7f8b9d
7f8b9d
7f8b9d
7f8b9d
7f8b9d
7f8b9d
7f8b9d
7f8b9d
7f8b9d
7f8b9d
7f8b9d
7f8b57
002f09
013675
003902
7ec0cc
7f469c
02d68b
0685cb
068562
02cf4d
7f4504
7ebca2
002e02
012661
001cee
7f8312
7f8b57
7f8b57
7f8b57
7f8b57
7f8b57
7f8b57
7f8b57
7f8b57
7f8b57
7f8b57
7f8b57
7f8b57
7f8b57
7f8b57
7f8b57
7f8b57
7f8b57
7f8b57
7f8b57
7f8a2e
002e54
013814
0038de
7ec4c5
7f4a5d
02d58c
068a0d
068581
02cf4c
7f438a
7ebae2
003158
01266b
001fb0
7f8107
7f8a2e
7f8a2e
7f8a2e
7f8a2e
7f8a2e
7f8a2e
7f8a2e
7f8a2e
7f8a2e
7f8a2e
7f8a2e
7f8a2e
7f8a2e
7f8a2e
7f8a2e
7f8a2e
7f8a2e
7f8a2e
7f8a2e
7f88c2
002d35
013765
003a6f
7ec4a3
7f4e33
02d92c
068916
06899d
02cf6a
7f4389
7eb975
002fa7
0129a4
001fba
7f83b1
7f88c2
7f88c2
7f88c2
7f88c2
7f88c2
7f88c2
7f88c2
7f88c2
7f88c2
7f88c2
7f88c2
7f88c2
7f88c2
7f88c2
7f88c2
7f88c2
7f88c2
7f88c2
7f88c2
7f89a2
002c1e
013689
0039e9
7ec5d6
7f4e19
02dc1c
068bdd
0688e0
02d290
7f43a0
7eb974
002e8f
012858
002232
7f83b8
7f89a2
7f89a2
7f89a2
7f89a2
7f89a2
7f89a2
7f89a2
7f89a2
7f89a2
7f89a2
7f89a2
7f89a2
7f89a2
7f89a2
7f89a2
7f89a2
7f89a2
7f89a2
7f89a2
7f890f
002cfe
013572
00390d
7ec550
7f4f4d
02dc02
068ece
068ba8
02d1d3
7f46c8
7eb98b
002e8e
01273f
0020e6
7f8631
7f890f
7f890f
7f890f
7f890f
7f890f
7f890f
7f890f
7f890f
7f890f
7f890f
7f890f
7f890f
7f890f
7f890f
7f890f
7f890f
7f890f
7f890f
7f890f
7f88da
002c14
0136d9
00374f
7ec3f0
7f4e77
02ddee
068ea4
06905c
02d646
7f459a
7ebe96
002eb2
01273e
001f26
7f841e
7f88da
7f88da
7f88da
7f88da
7f88da
7f88da
7f88da
7f88da
7f88da
7f88da
7f88da
7f88da
7f88da
7f88da
7f88da
7f88da
7f88da
7f88da
7f88da
7f8778
002be8
013618
003877
7ec280
7f4d54
02dd3d
06903a
069039
02da27
7f4945
7ebd9d
0032db
01275c
001f25
7f82ac
7f8778
7f8778
7f8778
7f8778
7f8778
7f8778
7f8778
7f8778
7f8778
7f8778
7f8778
7f8778
7f8778
7f8778
7f8778
7f8778
7f8778
7f8778
7f8778
7f8719
002b55
013606
003827
7ec2fa
7f4cbc
02dcc5
068ff1
0690e0
02da18
7f4adf
7ebf21
003274
012914
001f31
7f82ab
7f8719
7f8719
7f8719
7f8719
7f8719
7f8719
7f8719
7f8719
7f8719
7f8719
7f8719
7f8719
7f8719
7f8719
7f8719
7f8719
7f8719
7f8719
7f8719
7f8719
002b55
013606
003827
7ec2fa
7f4cbc
02dcc5
068ff1
0690e0
02da18
7f4adf
7ebf21
003274
012914
001f31
7f82ab
7f8719
7f8719
7f8719
7f8719
7f8719
7f8719
7f8719
7f8719
7f8719
7f8719
7f8719
7f8719
7f8719
7f8719
7f8719
7f8719
7f8719
7f8719
7f8719
7f8712
002b80
013620
00384f
7ec2fe
7f4cd1
02dca3
06901a
069100
02da2b
7f4ab0
7ebf24
003203
0128a9
001f4d
7f8232
7f8712
7f8712
7f8712
7f8712
7f8712
7f8712
7f8712
7f8712
7f8712
7f8712
7f8712
7f8712
7f8712
7f8712
7f8712
7f8712
7f8712
7f8712
7f8712
7f8714
002b82
01360f
003845
7ec2ee
7f4ccf
02dc9a
069026
0690f0
02da1e
7f4aa8
7ebf35
003201
0128d3
001f75
7f8227
7f8714
7f8714
7f8714
7f8714
7f8714
7f8714
7f8714
7f8714
7f8714
7f8714
7f8714
7f8714
7f8714
7f8714
7f8714
7f8714
7f8714
7f8714
7f8714
7f8734
002b7d
01360a
003861
7ec2ff
7f4ce9
02dc9d
069034
0690d9
02da39
7f4abd
7ebf42
0031e2
0128d5
001f2a
7f81e0
7f8734
7f8734
7f8734
7f8734
7f8734
7f8734
7f8734
7f8734
7f8734
7f8734
7f8734
7f8734
7f8734
7f8734
7f8734
7f8734
7f8734
7f8734
7f8734
7f85df
002c1e
0135f2
00384b
7ec38f
7f4d3f
02dd21
069044
069121
02d9ca
7f4b46
7ebfae
003224
01283c
001f36
7f806b
7f85df
7f85df
7f85df
7f85df
7f85df
7f85df
7f85df
7f85df
7f85df
7f85df
7f85df
7f85df
7f85df
7f85df
7f85df
7f85df
7f85df
7f85df
7f85df
7f8552
0029d0
013709
003822
7ec36a
7f4e38
02ddb5
069129
06913c
02da46
7f4a86
7ec09c
0032df
0128ae
001e2e
7f8081
7f8552
7f8552
7f8552
7f8552
7f8552
7f8552
7f8552
7f8552
7f8552
7f8552
7f8552
7f8552
7f8552
7f8552
7f8552
7f8552
7f8552
7f8552
7f8552
7f83b5
00292c
013457
003968
7ec33a
7f4e0d
02ded8
0691d6
069248
02da66
7f4b17
7ebfbb
0033f5
012989
001eb3
7f7f4d
7f83b5
7f83b5
7f83b5
7f83b5
7f83b5
7f83b5
7f83b5
7f83b5
7f83b5
7f83b5
7f83b5
7f83b5
7f83b5
7f83b5
7f83b5
7f83b5
7f83b5
7f83b5
7f83b5
7f8379
002865
013408
00381c
7ec3d7
7f4df6
02dec3
069262
06929b
02dae6
7f4b26
7ec001
003389
012a0e
001f1c
7f7f8d
7f8379
7f8379
7f8379
7f8379
7f8379
7f8379
7f8379
7f8379
7f8379
7f8379
7f8379
7f8379
7f8379
7f8379
7f8379
7f8379
7f8379
7f8379
7f8379
7f8376
002866
01340d
00381e
7ec3e0
7f4df1
02dec3
069262
069296
02dae3
7f4b22
7ec000
003386
012a11
001f18
7f7f89
7f8376
7f8376
7f8376
7f8376
7f8376
7f8376
7f8376
7f8376
7f8376
7f8376
7f8376
7f8376
7f8376
7f8376
7f8376
7f8376
7f8376
7f8376
7f8376
7f8360
002855
013416
00383e
7ec3ec
7f4e27
02dea9
069265
069299
02dacc
7f4b14
7ebfea
003383
012a05
001f29
7f7f73
7f8360
7f8360
7f8360
7f8360
7f8360
7f8360
7f8360
7f8360
7f8360
7f8360
7f8360
7f8360
7f8360
7f8360
7f8360
7f8360
7f8360
7f8360
7f8360
7f8306
00289e
01344f
00381c
7ec37b
7f4dfa
02dded
0692be
06928b
02dac0
7f4b63
7ec019
0033cc
012a0d
001f50
7f7f35
7f8306
7f8306
7f8306
7f8306
7f8306
7f8306
7f8306
7f8306
7f8306
7f8306
7f8306
7f8306
7f8306
7f8306
7f8306
7f8306
7f8306
7f8306
7f8306
7f82f9
002883
013464
00382c
7ec371
7f4dd8
02dddf
069286
0692a5
02dabc
7f4b5f
7ec030
0033d9
012a22
001f52
7f7f40
7f82f9
7f82f9
7f82f9
7f82f9
7f82f9
7f82f9
7f82f9
7f82f9
7f82f9
7f82f9
7f82f9
7f82f9
7f82f9
7f82f9
7f82f9
7f82f9
7f82f9
7f82f9
7f82f9
7f82e2
0028cf
013507
0037a6
7ec308
7f4e15
02deac
0692d7
0693fb
02da19
7f4b76
7ec045
003348
0129cb
001ecc
7f7f2f
7f82e2
7f82e2
7f82e2
7f82e2
7f82e2
7f82e2
7f82e2
7f82e2
7f82e2
7f82e2
7f82e2
7f82e2
7f82e2
7f82e2
7f82e2
7f82e2
7f82e2
7f82e2
7f82e2
7f8331
0028a9
013587
0038bb
7ec226
7f4d63
02df14
069431
069484
02dc5c
7f4a62
7ec06d
00336c
0128d5
001e39
7f7e4d
7f8331
7f8331
7f8331
7f8331
7f8331
7f8331
7f8331
7f8331
7f8331
7f8331
7f8331
7f8331
7f8331
7f8331
7f8331
7f8331
7f8331
7f8331
7f8331
7f82fb
0028dc
01356e
00390e
7ec2d9
7f4cd0
02dea1
069474
069564
02dcb5
7f4bd9
7ebfba
003386
0128ec
001d9a
7f7dee
7f82fb
7f82fb
7f82fb
7f82fb
7f82fb
7f82fb
7f82fb
7f82fb
7f82fb
7f82fb
7f82fb
7f82fb
7f82fb
7f82fb
7f82fb
7f82fb
7f82fb
7f82fb
7f82fb
7f82f6
0028d8
013571
00390c
7ec2de
7f4cdb
02de97
06946c
069568
02dcc2
7f4bde
7ebfd1
00337a
0128ed
001d9b
7f7de4
7f82f6
7f82f6
7f82f6
7f82f6
7f82f6
7f82f6
7f82f6
7f82f6
7f82f6
7f82f6
7f82f6
7f82f6
7f82f6
7f82f6
7f82f6
7f82f6
7f82f6
7f82f6
7f82f6
7f82c4
0028ed
013580
0038fc
7ec2e5
7f4cc2
02de61
069497
06958a
02dcad
7f4b9a
7ebfb6
003309
012922
001d93
7f7ddd
7f82c4
7f82c4
7f82c4
7f82c4
7f82c4
7f82c4
7f82c4
7f82c4
7f82c4
7f82c4
7f82c4
7f82c4
7f82c4
7f82c4
7f82c4
7f82c4
7f82c4
7f82c4
7f82c4
7f82cd
00291d
01356b
0038ec
7ec2f4
7f4cba
02de79
0694cb
06955f
02dc8b
7f4bad
7ebff8
003323
012990
001d5e
7f7de4
7f82cd
7f82cd
7f82cd
7f82cd
7f82cd
7f82cd
7f82cd
7f82cd
7f82cd
7f82cd
7f82cd
7f82cd
7f82cd
7f82cd
7f82cd
7f82cd
7f82cd
7f82cd
7f82cd
7f8379
00292b
0135b6
0038cb
7ec2db
7f4cd1
02de6d
0694f1
0695b1
02dc48
7f4b78
7ec016
003389
0129b8
001e0a
7f7d92
7f8379
7f8379
7f8379
7f8379
7f8379
7f8379
7f8379
7f8379
7f8379
7f8379
7f8379
7f8379
7f8379
7f8379
7f8379
7f8379
7f8379
7f8379
7f8379
7f8315
0029e3
0135c5
00391b
7ec2b8
7f4cb6
02de86
0694e5
0695d9
02dc9f
7f4b30
7ebfdd
0033aa
012a25
001e35
7f7e49
7f8315
7f8315
7f8315
7f8315
7f8315
7f8315
7f8315
7f8315
7f8315
7f8315
7f8315
7f8315
7f8315
7f8315
7f8315
7f8315
7f8315
7f8315
7f8315
7f831b
0029d6
0135db
00391c
7ec2c1
7f4cb1
02de82
0694e8
0695d7
02dca3
7f4b3a
7ebfd4
0033a3
012a29
001e42
7f7e4e
7f831b
7f831b
7f831b
7f831b
7f831b
7f831b
7f831b
7f831b
7f831b
7f831b
7f831b
7f831b
7f831b
7f831b
7f831b
7f831b
7f831b
7f831b
7f831b
7f8245
002966
0136a5
0037a2
7ec2a1
7f4c0c
02dec8
06951d
0695a3
02dcbb
7f4ae6
7ebf20
003435
012a9b
001dfe
7f7d6d
7f8245
7f8245
7f8245
7f8245
7f8245
7f8245
7f8245
7f8245
7f8245
7f8245
7f8245
7f8245
7f8245
7f8245
7f8245
7f8245
7f8245
7f8245
7f8245
7f8228
0028de
01365e
003822
7ec1b1
7f4bf8
02de5f
069549
0695c4
02dc9a
7f4af5
7ebeea
0033c2
012af7
001e46
7f7d41
7f8228
7f8228
7f8228
7f8228
7f8228
7f8228
7f8228
7f8228
7f8228
7f8228
7f8228
7f8228
7f8228
7f8228
7f8228
7f8228
7f8228
7f8228
7f8228
7f8284
0028ee
0136ac
00384a
7ec166
7f4c82
02de6a
069585
0695aa
02dc86
7f4b07
7ebee1
0033e0
012b38
001e10
7f7d16
7f8284
7f8284
7f8284
7f8284
7f8284
7f8284
7f8284
7f8284
7f8284
7f8284
7f8284
7f8284
7f8284
7f8284
7f8284
7f8284
7f8284
7f8284
7f8284
7f8287
0029c2
0136d1
0038fc
7ec1c3
7f4bd7
02dfa6
06959f
069634
02dc4a
7f4ada
7ebf0c
0033cb
012b7d
001ea6
7f7c9b
7f8287
7f8287
7f8287
7f8287
7f8287
7f8287
7f8287
7f8287
7f8287
7f8287
7f8287
7f8287
7f8287
7f8287
7f8287
7f8287
7f8287
7f8287
7f8287
7f82c6
0029c4
013773
003918
7ec24c
7f4c1e
02df23
069692
069648
02dcb4
7f4aac
7ebee9
0033ec
012b6d
001edb
7f7d0e
7f82c6
7f82c6
7f82c6
7f82c6
7f82c6
7f82c6
7f82c6
7f82c6
7f82c6
7f82c6
7f82c6
7f82c6
7f82c6
7f82c6
7f82c6
7f82c6
7f82c6
7f82c6
7f82c6
7f8142
002a27
013776
003a16
7ec279
7f4cf4
02df92
0695c6
0697c3
02dcd3
7f4b51
7ebea1
0033b6
012ba0
001ec2
7f7d61
7f8142
7f8142
7f8142
7f8142
7f8142
7f8142
7f8142
7f8142
7f8142
7f8142
7f8142
7f8142
7f8142
7f8142
7f8142
7f8142
7f8142
7f8142
7f8142
7f8089
0028c6
0137d0
003a19
7ec360
7f4d1d
02e055
06962b
069709
02de2c
7f4b6d
7ebf37
003375
012b6f
001ef1
7f7d4a
7f8089
7f8089
7f8089
7f8089
7f8089
7f8089
7f8089
7f8089
7f8089
7f8089
7f8089
7f8089
7f8089
7f8089
7f8089
7f8089
7f8089
7f8089
7f8089
7f80a1
0028ba
0137ba
003a1e
7ec360
7f4d2b
02e057
069637
06970f
02de20
7f4b82
7ebf38
00337e
012b6b
001eed
7f7d4c
7f80a1
7f80a1
7f80a1
7f80a1
7f80a1
7f80a1
7f80a1
7f80a1
7f80a1
7f80a1
7f80a1
7f80a1
7f80a1
7f80a1
7f80a1
7f80a1
7f80a1
7f80a1
7f80a1
7f806d
0029db
013735
003921
7ec3a1
7f4d2d
02e0fc
069654
06979a
02de68
7f4afd
7ec02f
003392
012bd6
001ebe
7f7d28
7f806d
7f806d
7f806d
7f806d
7f806d
7f806d
7f806d
7f806d
7f806d
7f806d
7f806d
7f806d
7f806d
7f806d
7f806d
7f806d
7f806d
7f806d
7f806d
7f8194
00297d
013943
003830
7ec1d5
7f4da3
02e100
069781
0697cf
02df66
7f4b81
7ebf3d
003553
012bfb
001f82
7f7cd3
7f8194
7f8194
7f8194
7f8194
7f8194
7f8194
7f8194
7f8194
7f8194
7f8194
7f8194
7f8194
7f8194
7f8194
7f8194
7f8194
7f8194
7f8194
7f8194
7f81b9
002a48
013902
00399b
7ec12f
7f4c66
02e151
069784
06989e
02df8a
7f4c30
7ebf98
0034ac
012d31
001f9b
7f7d5a
7f81b9
7f81b9
7f81b9
7f81b9
7f81b9
7f81b9
7f81b9
7f81b9
7f81b9
7f81b9
7f81b9
7f81b9
7f81b9
7f81b9
7f81b9
7f81b9
7f81b9
7f81b9
7f81b9
7f81bd
002a41
0138df
0039a6
7ec0f0
7f4c82
02e187
069775
06989d
02df66
7f4c29
7ebf79
00349c
012d4d
001f65
7f7d55
7f81bd
7f81bd
7f81bd
7f81bd
7f81bd
7f81bd
7f81bd
7f81bd
7f81bd
7f81bd
7f81bd
7f81bd
7f81bd
7f81bd
7f81bd
7f81bd
7f81bd
7f81bd
7f81bd
7f8201
002a4f
0138c7
003926
7ec118
7f4b9e
02e1ee
06983b
069869
02df64
7f4ba6
7ebf61
00342e
012d13
001fcd
7f7c92
7f8201
7f8201
7f8201
7f8201
7f8201
7f8201
7f8201
7f8201
7f8201
7f8201
7f8201
7f8201
7f8201
7f8201
7f8201
7f8201
7f8201
7f8201
7f8201
7f81ee
002a81
0138d2
003914
7ec0b9
7f4bbb
02e145
069887
0698fb
02df3e
7f4ba4
7ebf00
00341c
012cc1
001fa2
7f7cdf
7f81ee
7f81ee
7f81ee
7f81ee
7f81ee
7f81ee
7f81ee
7f81ee
7f81ee
7f81ee
7f81ee
7f81ee
7f81ee
7f81ee
7f81ee
7f81ee
7f81ee
7f81ee
7f81ee
7f818b
002a92
0138a3
003909
7ec0c8
7f4c12
02e129
069923
0698b3
02deb5
7f4bc7
7ebf01
003475
012cd0
001fed
7f7d06
7f818b
7f818b
7f818b
7f818b
7f818b
7f818b
7f818b
7f818b
7f818b
7f818b
7f818b
7f818b
7f818b
7f818b
7f818b
7f818b
7f818b
7f818b
7f818b
7f81e1
002976
0138d4
003882
7ec0aa
7f4c3f
02e224
0698d3
069a74
02dde8
7f4a3f
7ebf65
003478
012dd1
00201a
7f7dde
7f81e1
7f81e1
7f81e1
7f81e1
7f81e1
7f81e1
7f81e1
7f81e1
7f81e1
7f81e1
7f81e1
7f81e1
7f81e1
7f81e1
7f81e1
7f81e1
7f81e1
7f81e1
7f81e1
7f81b0
0029bd
0137ea
0038aa
7ec03b
7f4c26
02e249
0699a1
069a32
02df59
7f4996
7ebe22
0034ca
012dd4
0020ed
7f7e03
7f81b0
7f81b0
7f81b0
7f81b0
7f81b0
7f81b0
7f81b0
7f81b0
7f81b0
7f81b0
7f81b0
7f81b0
7f81b0
7f81b0
7f81b0
7f81b0
7f81b0
7f81b0
7f81b0
7f81a4
0029b7
0137f2
00388f
7ec03f
7f4c19
02e246
0699a5
069a49
02df51
7f49c0
7ebe0e
0034a4
012ddd
0020ed
7f7e1b
7f81a4
7f81a4
7f81a4
7f81a4
7f81a4
7f81a4
7f81a4
7f81a4
7f81a4
7f81a4
7f81a4
7f81a4
7f81a4
7f81a4
7f81a4
7f81a4
7f81a4
7f81a4
7f81a4
7f81a7
0029d2
0137ff
00387b
7ec080
7f4c0d
02e265
0699ab
069a3e
02df16
7f49d2
7ebda6
0034d3
012e37
0020d5
7f7e1a
7f81a7
7f81a7
7f81a7
7f81a7
7f81a7
7f81a7
7f81a7
7f81a7
7f81a7
7f81a7
7f81a7
7f81a7
7f81a7
7f81a7
7f81a7
7f81a7
7f81a7
7f81a7
7f81a7
7f817f
0029ce
0137e1
00386c
7ec095
7f4bc6
02e271
069989
069a36
02df21
7f4a10
7ebd92
003542
012e04
002074
7f7e32
7f817f
7f817f
7f817f
7f817f
7f817f
7f817f
7f817f
7f817f
7f817f
7f817f
7f817f
7f817f
7f817f
7f817f
7f817f
7f817f
7f817f
7f817f
7f817f
7f815a
00296a
0137d7
003820
7ec070
7f4bfc
02e1be
0699a7
0699e1
02df0e
7f4a2c
7ebe2f
003510
012f1e
001ff3
7f7d3b
7f815a
7f815a
7f815a
7f815a
7f815a
7f815a
7f815a
7f815a
7f815a
7f815a
7f815a
7f815a
7f815a
7f815a
7f815a
7f815a
7f815a
7f815a
7f815a
7f812c
00297c
01380a
003824
7ec096
7f4c0f
02e1a1
069a03
0699d1
02df39
7f4a35
7ebe20
0034be
012f37
001f60
7f7d7d
7f812c
7f812c
7f812c
7f812c
7f812c
7f812c
7f812c
7f812c
7f812c
7f812c
7f812c
7f812c
7f812c
7f812c
7f812c
7f812c
7f812c
7f812c
7f812c
7f7fbc
0028dc
01384b
0038d7
7ec0a7
7f4c96
02e1e3
0699a1
069b11
02df01
7f4acd
7ebe41
00348a
012e1a
001fb9
7f7b80
7f7fbc
7f7fbc
7f7fbc
7f7fbc
7f7fbc
7f7fbc
7f7fbc
7f7fbc
7f7fbc
7f7fbc
7f7fbc
7f7fbc
7f7fbc
7f7fbc
7f7fbc
7f7fbc
7f7fbc
7f7fbc
7f7fbc
7f8017
002883
013824
0038e6
7ec0d2
7f4c9a
02e203
0699b1
069af9
02df4e
7f4abf
7ebe65
003492
012e0d
001f74
7f7b95
7f8017
7f8017
7f8017
7f8017
7f8017
7f8017
7f8017
7f8017
7f8017
7f8017
7f8017
7f8017
7f8017
7f8017
7f8017
7f8017
7f8017
7f8017
7f8017
7f7ffe
0028cd
0137db
0038c6
7ec0de
7f4cbd
02e206
0699cb
069b06
02df3a
7f4afe
7ebe5a
0034af
012e13
001f69
7f7b5d
7f7ffe
7f7ffe
7f7ffe
7f7ffe
7f7ffe
7f7ffe
7f7ffe
7f7ffe
7f7ffe
7f7ffe
7f7ffe
7f7ffe
7f7ffe
7f7ffe
7f7ffe
7f7ffe
7f7ffe
7f7ffe
7f7ffe
7f8008
00288e
01389b
00380b
7ec08c
7f4cde
02e261
0699d3
069b4a
02df5b
7f4acc
7ebefd
003492
012e60
001f7a
7f7b42
7f8008
7f8008
7f8008
7f8008
7f8008
7f8008
7f8008
7f8008
7f8008
7f8008
7f8008
7f8008
7f8008
7f8008
7f8008
7f8008
7f8008
7f8008
7f8008
7f8050
00289b
